{
  "version": "1.0",
  "truncation": null,
  "padding": null,
  "added_tokens": [
    {
      "id": 0,
      "content": "<|bos|>",
      "single_word": false,
      "lstrip": false,
      "rstrip": false,
      "normalized": false,
      "special": true
    },
    {
      "id": 1,
      "content": "<|eos|>",
      "single_word": false,
      "lstrip": false,
      "rstrip": false,
      "normalized": false,
      "special": true
    },
    {
      "id": 2,
      "content": "<|pad|>",
      "single_word": false,
      "lstrip": false,
      "rstrip": false,
      "normalized": false,
      "special": true
    },
    {
      "id": 3,
      "content": "<|user|>",
      "single_word": false,
      "lstrip": false,
      "rstrip": false,
      "normalized": false,
      "special": true
    },
    {
      "id": 4,
      "content": "<|assistant|>",
      "single_word": false,
      "lstrip": false,
      "rstrip": false,
      "normalized": false,
      "special": true
    },
    {
      "id": 5,
      "content": "<|file|>",
      "single_word": false,
      "lstrip": false,
      "rstrip": false,
      "normalized": false,
      "special": true
    },
    {
      "id": 6,
      "content": "<|path|>",
      "single_word": false,
      "lstrip": false,
      "rstrip": false,
      "normalized": false,
      "special": true
    },
    {
      "id": 7,
      "content": "<|content|>",
      "single_word": false,
      "lstrip": false,
      "rstrip": false,
      "normalized": false,
      "special": true
    },
    {
      "id": 8,
      "content": "<|comp|>",
      "single_word": false,
      "lstrip": false,
      "rstrip": false,
      "normalized": false,
      "special": true
    },
    {
      "id": 9,
      "content": "<|page|>",
      "single_word": false,
      "lstrip": false,
      "rstrip": false,
      "normalized": false,
      "special": true
    },
    {
      "id": 10,
      "content": "<|site|>",
      "single_word": false,
      "lstrip": false,
      "rstrip": false,
      "normalized": false,
      "special": true
    }
  ],
  "normalizer": {
    "type": "NFC"
  },
  "pre_tokenizer": {
    "type": "ByteLevel",
    "add_prefix_space": false,
    "trim_offsets": true,
    "use_regex": true
  },
  "post_processor": {
    "type": "TemplateProcessing",
    "single": [
      {
        "SpecialToken": {
          "id": "<|bos|>",
          "type_id": 0
        }
      },
      {
        "Sequence": {
          "id": "A",
          "type_id": 0
        }
      }
    ],
    "pair": [
      {
        "Sequence": {
          "id": "A",
          "type_id": 0
        }
      },
      {
        "Sequence": {
          "id": "B",
          "type_id": 1
        }
      }
    ],
    "special_tokens": {
      "<|bos|>": {
        "id": "<|bos|>",
        "ids": [
          0
        ],
        "tokens": [
          "<|bos|>"
        ]
      }
    }
  },
  "decoder": {
    "type": "ByteLevel",
    "add_prefix_space": true,
    "trim_offsets": true,
    "use_regex": true
  },
  "model": {
    "type": "BPE",
    "dropout": null,
    "unk_token": null,
    "continuing_subword_prefix": null,
    "end_of_word_suffix": null,
    "fuse_unk": false,
    "byte_fallback": false,
    "ignore_merges": false,
    "vocab": {
      "<|bos|>": 0,
      "<|eos|>": 1,
      "<|pad|>": 2,
      "<|user|>": 3,
      "<|assistant|>": 4,
      "<|file|>": 5,
      "<|path|>": 6,
      "<|content|>": 7,
      "<|comp|>": 8,
      "<|page|>": 9,
      "<|site|>": 10,
      "!": 11,
      "\"": 12,
      "#": 13,
      "$": 14,
      "%": 15,
      "&": 16,
      "'": 17,
      "(": 18,
      ")": 19,
      "*": 20,
      "+": 21,
      ",": 22,
      "-": 23,
      ".": 24,
      "/": 25,
      "0": 26,
      "1": 27,
      "2": 28,
      "3": 29,
      "4": 30,
      "5": 31,
      "6": 32,
      "7": 33,
      "8": 34,
      "9": 35,
      ":": 36,
      ";": 37,
      "<": 38,
      "=": 39,
      ">": 40,
      "?": 41,
      "@": 42,
      "A": 43,
      "B": 44,
      "C": 45,
      "D": 46,
      "E": 47,
      "F": 48,
      "G": 49,
      "H": 50,
      "I": 51,
      "J": 52,
      "K": 53,
      "L": 54,
      "M": 55,
      "N": 56,
      "O": 57,
      "P": 58,
      "Q": 59,
      "R": 60,
      "S": 61,
      "T": 62,
      "U": 63,
      "V": 64,
      "W": 65,
      "X": 66,
      "Y": 67,
      "Z": 68,
      "[": 69,
      "\\": 70,
      "]": 71,
      "^": 72,
      "_": 73,
      "`": 74,
      "a": 75,
      "b": 76,
      "c": 77,
      "d": 78,
      "e": 79,
      "f": 80,
      "g": 81,
      "h": 82,
      "i": 83,
      "j": 84,
      "k": 85,
      "l": 86,
      "m": 87,
      "n": 88,
      "o": 89,
      "p": 90,
      "q": 91,
      "r": 92,
      "s": 93,
      "t": 94,
      "u": 95,
      "v": 96,
      "w": 97,
      "x": 98,
      "y": 99,
      "z": 100,
      "{": 101,
      "|": 102,
      "}": 103,
      "~": 104,
      "¡": 105,
      "¢": 106,
      "£": 107,
      "¤": 108,
      "¥": 109,
      "¦": 110,
      "§": 111,
      "¨": 112,
      "©": 113,
      "ª": 114,
      "«": 115,
      "¬": 116,
      "®": 117,
      "¯": 118,
      "°": 119,
      "±": 120,
      "²": 121,
      "³": 122,
      "´": 123,
      "µ": 124,
      "¶": 125,
      "·": 126,
      "¸": 127,
      "¹": 128,
      "º": 129,
      "»": 130,
      "¼": 131,
      "½": 132,
      "¾": 133,
      "¿": 134,
      "À": 135,
      "Á": 136,
      "Â": 137,
      "Ã": 138,
      "Ä": 139,
      "Å": 140,
      "Æ": 141,
      "Ç": 142,
      "È": 143,
      "É": 144,
      "Ê": 145,
      "Ë": 146,
      "Ì": 147,
      "Í": 148,
      "Î": 149,
      "Ï": 150,
      "Ð": 151,
      "Ñ": 152,
      "Ò": 153,
      "Ó": 154,
      "Ô": 155,
      "Õ": 156,
      "Ö": 157,
      "×": 158,
      "Ø": 159,
      "Ù": 160,
      "Ú": 161,
      "Û": 162,
      "Ü": 163,
      "Ý": 164,
      "Þ": 165,
      "ß": 166,
      "à": 167,
      "á": 168,
      "â": 169,
      "ã": 170,
      "ä": 171,
      "å": 172,
      "æ": 173,
      "ç": 174,
      "è": 175,
      "é": 176,
      "ê": 177,
      "ë": 178,
      "ì": 179,
      "í": 180,
      "î": 181,
      "ï": 182,
      "ð": 183,
      "ñ": 184,
      "ò": 185,
      "ó": 186,
      "ô": 187,
      "õ": 188,
      "ö": 189,
      "÷": 190,
      "ø": 191,
      "ù": 192,
      "ú": 193,
      "û": 194,
      "ü": 195,
      "ý": 196,
      "þ": 197,
      "ÿ": 198,
      "Ā": 199,
      "ā": 200,
      "Ă": 201,
      "ă": 202,
      "Ą": 203,
      "ą": 204,
      "Ć": 205,
      "ć": 206,
      "Ĉ": 207,
      "ĉ": 208,
      "Ċ": 209,
      "ċ": 210,
      "Č": 211,
      "č": 212,
      "Ď": 213,
      "ď": 214,
      "Đ": 215,
      "đ": 216,
      "Ē": 217,
      "ē": 218,
      "Ĕ": 219,
      "ĕ": 220,
      "Ė": 221,
      "ė": 222,
      "Ę": 223,
      "ę": 224,
      "Ě": 225,
      "ě": 226,
      "Ĝ": 227,
      "ĝ": 228,
      "Ğ": 229,
      "ğ": 230,
      "Ġ": 231,
      "ġ": 232,
      "Ģ": 233,
      "ģ": 234,
      "Ĥ": 235,
      "ĥ": 236,
      "Ħ": 237,
      "ħ": 238,
      "Ĩ": 239,
      "ĩ": 240,
      "Ī": 241,
      "ī": 242,
      "Ĭ": 243,
      "ĭ": 244,
      "Į": 245,
      "į": 246,
      "İ": 247,
      "ı": 248,
      "Ĳ": 249,
      "ĳ": 250,
      "Ĵ": 251,
      "ĵ": 252,
      "Ķ": 253,
      "ķ": 254,
      "ĸ": 255,
      "Ĺ": 256,
      "ĺ": 257,
      "Ļ": 258,
      "ļ": 259,
      "Ľ": 260,
      "ľ": 261,
      "Ŀ": 262,
      "ŀ": 263,
      "Ł": 264,
      "ł": 265,
      "Ń": 266,
      "ĠĠ": 267,
      "te": 268,
      "ĠĠĠ": 269,
      "Ġ<": 270,
      "on": 271,
      "ti": 272,
      "ĠĠĠĠĠ": 273,
      "la": 274,
      "or": 275,
      "me": 276,
      "Ġ\"": 277,
      "=\"": 278,
      "Ġf": 279,
      "in": 280,
      "Ġc": 281,
      "de": 282,
      "le": 283,
      "re": 284,
      "ss": 285,
      "ro": 286,
      "Ġ{": 287,
      "<|": 288,
      "|>": 289,
      "Na": 290,
      "ac": 291,
      "ge": 292,
      "lass": 293,
      "\">": 294,
      "Name": 295,
      "lassName": 296,
      "por": 297,
      "tion": 298,
      "xt": 299,
      "port": 300,
      "ĠclassName": 301,
      "nt": 302,
      "age": 303,
      "se": 304,
      "Ġp": 305,
      "Ġ</": 306,
      "text": 307,
      "ĠĠĠĠĠĠĠ": 308,
      "act": 309,
      "ar": 310,
      "Ġ}": 311,
      "Ġ'": 312,
      "Ġm": 313,
      "ri": 314,
      "ction": 315,
      "ont": 316,
      "to": 317,
      "bo": 318,
      "xl": 319,
      "tu": 320,
      "\":": 321,
      "|><|": 322,
      "\",": 323,
      "Page": 324,
      "im": 325,
      "import": 326,
      "Ġs": 327,
      "Ġtext": 328,
      "om": 329,
      "ter": 330,
      "Ġ/": 331,
      "Ġ/>": 332,
      "th": 333,
      "rom": 334,
      "Ġfrom": 335,
      "</": 336,
      "il": 337,
      "00": 338,
      "Ġb": 339,
      "un": 340,
      "an": 341,
      "ta": 342,
      "ite": 343,
      "der": 344,
      "au": 345,
      "ink": 346,
      "late": 347,
      "slate": 348,
      "Ġde": 349,
      "ou": 350,
      "tr": 351,
      "tle": 352,
      "title": 353,
      "Ġ(": 354,
      "Ġ)": 355,
      "ax": 356,
      "Ġmax": 357,
      "ea": 358,
      "ing": 359,
      "()": 360,
      "./": 361,
      "Ġre": 362,
      "en": 363,
      "ontact": 364,
      "di": 365,
      "ty": 366,
      "ath": 367,
      "section": 368,
      "sc": 369,
      "ex": 370,
      "export": 371,
      "rn": 372,
      "Ġfun": 373,
      "turn": 374,
      "Ġreturn": 375,
      "Ġfunction": 376,
      "react": 377,
      "ent": 378,
      "Rou": 379,
      "ĠĠĠĠĠĠĠĠĠ": 380,
      "lex": 381,
      "omp": 382,
      "ack": 383,
      "Ġpx": 384,
      "Ġpy": 385,
      "Ġfont": 386,
      "ht": 387,
      "div": 388,
      "oo": 389,
      "comp": 390,
      "con": 391,
      "Ġto": 392,
      "onent": 393,
      "Ġtr": 394,
      "rc": 395,
      "fi": 396,
      "ld": 397,
      "bold": 398,
      "Ġ\"^": 399,
      "tent": 400,
      "be": 401,
      "onents": 402,
      "components": 403,
      "Nav": 404,
      "rip": 405,
      "scrip": 406,
      "al": 407,
      "={": 408,
      "ĠH": 409,
      "Ġa": 410,
      "ne": 411,
      "Ġ'./": 412,
      "pe": 413,
      "ts": 414,
      "os": 415,
      "auto": 416,
      "mx": 417,
      "ut": 418,
      "Route": 419,
      "and": 420,
      "Ġ=": 421,
      "eos": 422,
      "path": 423,
      "content": 424,
      "file": 425,
      "ages": 426,
      "Ġ},": 427,
      "ĠC": 428,
      "src": 429,
      "mt": 430,
      "ooter": 431,
      "type": 432,
      "Link": 433,
      "tsx": 434,
      "ome": 435,
      "dom": 436,
      "bout": 437,
      "link": 438,
      "order": 439,
      "ture": 440,
      "tail": 441,
      "eature": 442,
      "sti": 443,
      "ght": 444,
      "ps": 445,
      "ap": 446,
      "ser": 447,
      "ĠF": 448,
      "na": 449,
      "pages": 450,
      "Ġand": 451,
      "Ġdef": 452,
      "ate": 453,
      "ero": 454,
      "600": 455,
      "lt": 456,
      "ault": 457,
      "Ġdefault": 458,
      "vite": 459,
      "acking": 460,
      "Ġtracking": 461,
      "rid": 462,
      "--": 463,
      "Ġbg": 464,
      "er": 465,
      "Ġtitle": 466,
      "Ġla": 467,
      "sm": 468,
      "=\"/": 469,
      "bel": 470,
      "Ġflex": 471,
      "Ġborder": 472,
      "16": 473,
      "ment": 474,
      "tight": 475,
      "st": 476,
      "ore": 477,
      "ĠL": 478,
      "sPage": 479,
      "hite": 480,
      "white": 481,
      "ric": 482,
      "omePage": 483,
      "Ġh": 484,
      "uil": 485,
      "ear": 486,
      "bar": 487,
      "Navbar": 488,
      "Contact": 489,
      "win": 490,
      "wind": 491,
      "Ġw": 492,
      "ie": 493,
      "Ġe": 494,
      "lement": 495,
      "ĠA": 496,
      "flex": 497,
      "TA": 498,
      "Ġlabel": 499,
      "ain": 500,
      "Grid": 501,
      "eatureGrid": 502,
      "css": 503,
      "mi": 504,
      "lu": 505,
      "scription": 506,
      "Ġ\"/": 507,
      "ov": 508,
      "pp": 509,
      "ard": 510,
      "hea": 511,
      "Ġg": 512,
      "rou": 513,
      "router": 514,
      "ĠS": 515,
      "Ġabout": 516,
      "lg": 517,
      "50": 518,
      "../": 519,
      "Ġ'../": 520,
      "ol": 521,
      "semi": 522,
      "semibold": 523,
      "19": 524,
      "Ġ\"@": 525,
      "roun": 526,
      "Ġpath": 527,
      "Ġ/>}": 528,
      "={<": 529,
      "Ġelement": 530,
      "âĢ": 531,
      "ĠâĢ": 532,
      "ĠâĢĶ": 533,
      "ode": 534,
      "tails": 535,
      "Ġne": 536,
      "Ġnext": 537,
      "Ġdetails": 538,
      "teps": 539,
      "Ġmore": 540,
      "Ġsteps": 541,
      "ĠLear": 542,
      "ĠLearn": 543,
      "reate": 544,
      "Re": 545,
      "NavLink": 546,
      "ĠĠĠĠĠĠĠĠĠĠĠ": 547,
      "Ġdescription": 548,
      "ul": 549,
      "dy": 550,
      "main": 551,
      "ĠHero": 552,
      "ĠB": 553,
      "ml": 554,
      "html": 555,
      "nc": 556,
      "do": 557,
      "contact": 558,
      "Ġstr": 559,
      "Ġstring": 560,
      "tailwind": 561,
      "tailwindcss": 562,
      "ub": 563,
      "fy": 564,
      "ju": 565,
      "stify": 566,
      "justify": 567,
      "ubtitle": 568,
      "Routes": 569,
      "Ġmin": 570,
      "ce": 571,
      "Pro": 572,
      "row": 573,
      "Ġ#": 574,
      "Ġfor": 575,
      "Hero": 576,
      "Ġ--": 577,
      "Ġjustify": 578,
      "dev": 579,
      "script": 580,
      "Buil": 581,
      "body": 582,
      "sta": 583,
      "Ġv": 584,
      "Router": 585,
      "teal": 586,
      "serRouter": 587,
      "rowserRouter": 588,
      "id": 589,
      "ot": 590,
      "root": 591,
      "Props": 592,
      "rict": 593,
      "Mode": 594,
      "trict": 595,
      "trictMode": 596,
      "ms": 597,
      "vie": 598,
      "view": 599,
      "name": 600,
      "Ġvar": 601,
      "ded": 602,
      "rounded": 603,
      "CTA": 604,
      "FeatureGrid": 605,
      "ity": 606,
      "enter": 607,
      "center": 608,
      "HomePage": 609,
      "}</": 610,
      "\">{": 611,
      "op": 612,
      "over": 613,
      "Ġwi": 614,
      "Ġwith": 615,
      "it": 616,
      "Footer": 617,
      "',": 618,
      "ĠCard": 619,
      "Ġhover": 620,
      "Ġcta": 621,
      "Ġsubtitle": 622,
      "ContactPage": 623,
      "we": 624,
      "col": 625,
      "twe": 626,
      "betwe": 627,
      "between": 628,
      "ĠContact": 629,
      "oder": 630,
      "odern": 631,
      "ĠP": 632,
      "App": 633,
      "si": 634,
      "ssi": 635,
      "Built": 636,
      "user": 637,
      "nav": 638,
      "assi": 639,
      "bos": 640,
      "stant": 641,
      "assistant": 642,
      "links": 643,
      "header": 644,
      "ĠHomePage": 645,
      "footer": 646,
      "ĠFooter": 647,
      "ĠNavbar": 648,
      "bg": 649,
      "ĠRe": 650,
      "ng": 651,
      "ĠContactPage": 652,
      "gin": 653,
      "acity": 654,
      "opacity": 655,
      "100": 656,
      "=\"/\"": 657,
      "Ġgap": 658,
      "get": 659,
      "ĠD": 660,
      "Ġback": 661,
      "ref": 662,
      "Ġin": 663,
      "mo": 664,
      "200": 665,
      "Men": 666,
      "Menu": 667,
      "?:": 668,
      "ouse": 669,
      "ies": 670,
      "denc": 671,
      "uild": 672,
      ");": 673,
      "pen": 674,
      "dencies": 675,
      "pendencies": 676,
      "(--": 677,
      "du": 678,
      "ed": 679,
      "ness": 680,
      "Ġ[": 681,
      "dule": 682,
      "ean": 683,
      "module": 684,
      "map": 685,
      "ĠApp": 686,
      "ĠCTA": 687,
      "inde": 688,
      "index": 689,
      "ĠReact": 690,
      "alle": 691,
      "itness": 692,
      "meta": 693,
      "Roo": 694,
      "reateRoo": 695,
      "reateRoot": 696,
      "wid": 697,
      "width": 698,
      "site": 699,
      "doc": 700,
      "ke": 701,
      "head": 702,
      "ail": 703,
      "Ġ=>": 704,
      "Ġmodern": 705,
      "StrictMode": 706,
      "review": 707,
      "\"></": 708,
      "types": 709,
      "mer": 710,
      "ĠFeatureGrid": 711,
      "BrowserRouter": 712,
      "((": 713,
      ")}": 714,
      "Ġke": 715,
      "Ġ))}": 716,
      "Ġkey": 717,
      "ĠHouse": 718,
      "Ġhref": 719,
      "alled": 720,
      "Ġcalled": 721,
      "ĠT": 722,
      "us": 723,
      "rea": 724,
      "Create": 725,
      "ander": 726,
      "lust": 727,
      "anderlust": 728,
      "usto": 729,
      "Ġcusto": 730,
      "mers": 731,
      "Ġcustomers": 732,
      "Ġsm": 733,
      "pri": 734,
      "men": 735,
      "eatures": 736,
      "eg": 737,
      "ova": 738,
      "tudi": 739,
      "ulse": 740,
      "tudio": 741,
      "Wanderlust": 742,
      "ailwind": 743,
      "ren": 744,
      "const": 745,
      "tions": 746,
      "Ġcon": 747,
      "js": 748,
      "De": 749,
      "vh": 750,
      "Card": 751,
      "Nova": 752,
      "ĠFitness": 753,
      "ĠStudio": 754,
      "pl": 755,
      "ricing": 756,
      "Ex": 757,
      "ys": 758,
      "Expl": 759,
      "Explore": 760,
      "fa": 761,
      "reen": 762,
      ".\"": 763,
      "ine": 764,
      "items": 765,
      ".'": 766,
      "ver": 767,
      "About": 768,
      "Ġitems": 769,
      "950": 770,
      "Ġname": 771,
      "Ġch": 772,
      "line": 773,
      "Ġrounded": 774,
      "({": 775,
      "Ġ}:": 776,
      "Ġwe": 777,
      "ase": 778,
      "li": 779,
      "Ġ<>": 780,
      "Ġ</>": 781,
      "800": 782,
      "ha": 783,
      "dow": 784,
      "hadow": 785,
      "ackages": 786,
      "stina": 787,
      "serv": 788,
      "serva": 789,
      "ĠBean": 790,
      "bsite": 791,
      "ork": 792,
      "ull": 793,
      "tor": 794,
      "Ġu": 795,
      "tea": 796,
      "ck": 797,
      "ĠNavLink": 798,
      "Ġwebsite": 799,
      "-[": 800,
      "Ġtea": 801,
      "Ġteams": 802,
      "acti": 803,
      "Ġcontact": 804,
      "racti": 805,
      "ttor": 806,
      "lasse": 807,
      "sting": 808,
      "ainer": 809,
      "ractice": 810,
      "ttorne": 811,
      "dar": 812,
      "ĠĠĠĠĠĠĠĠĠĠĠĠĠ": 813,
      "900": 814,
      "ĠWanderlust": 815,
      "ve": 816,
      "ncy": 817,
      "ĠLink": 818,
      "tic": 819,
      "Ġz": 820,
      "cky": 821,
      "Ġtop": 822,
      "rap": 823,
      "tionsPage": 824,
      "MenuPage": 825,
      "Home": 826,
      "border": 827,
      "artic": 828,
      "article": 829,
      "wrap": 830,
      "ĠHeroProps": 831,
      "ĠCardProps": 832,
      "ĠTailwind": 833,
      "ĠG": 834,
      "Ġlinks": 835,
      "label": 836,
      ">Â": 837,
      "Full": 838,
      "Year": 839,
      "().": 840,
      "()}": 841,
      "new": 842,
      "getFull": 843,
      "ĠDate": 844,
      ">Â©": 845,
      "getFullYear": 846,
      "sticky": 847,
      "dark": 848,
      "ĠNova": 849,
      "ĠPulse": 850,
      "tar": 851,
      "Rea": 852,
      "Ġdark": 853,
      "Ġinline": 854,
      "ue": 855,
      "br": 856,
      "=\"#": 857,
      "description": 858,
      "Ġ+": 859,
      "Ġtrue": 860,
      "Ġ\"/\",": 861,
      "ĠRoute": 862,
      "ĠRoutes": 863,
      "80": 864,
      "lur": 865,
      "lugin": 866,
      "className": 867,
      "blur": 868,
      "dro": 869,
      "Ġbackdro": 870,
      "Ġbackdrop": 871,
      "plugin": 872,
      "vitejs": 873,
      "typescript": 874,
      "ĠAge": 875,
      "ant": 876,
      "Ġvite": 877,
      "ton": 878,
      "utton": 879,
      "of": 880,
      "he": 881,
      "screen": 882,
      "Ġ0": 883,
      "menu": 884,
      "Ġ&": 885,
      "ight": 886,
      "groun": 887,
      "argin": 888,
      "ground": 889,
      "ĠBrowserRouter": 890,
      "olor": 891,
      "height": 892,
      "Ġcolor": 893,
      "Ġmargin": 894,
      "Ġbuild": 895,
      "Ġbackground": 896,
      "Ġ100": 897,
      "Ġ-": 898,
      "\";": 899,
      "build": 900,
      "tsc": 901,
      "vate": 902,
      "Ġ\"~": 903,
      "dependencies": 904,
      "scripts": 905,
      "devDe": 906,
      "private": 907,
      "Ġ&&": 908,
      "devDependencies": 909,
      "brand": 910,
      "Ġcontent": 911,
      "aa": 912,
      "ice": 913,
      "ans": 914,
      "Ġstar": 915,
      "Ġtype": 916,
      "ĠcreateRoot": 917,
      "ĠStrictMode": 918,
      "ui": 919,
      "ale": 920,
      "ĠU": 921,
      "tem": 922,
      "ĠUI": 923,
      "<!": 924,
      "mil": 925,
      "Ġhtml": 926,
      "seri": 927,
      "doctype": 928,
      "famil": 929,
      "serif": 930,
      "family": 931,
      "scale": 932,
      "TF": 933,
      "UTF": 934,
      "iti": 935,
      "set": 936,
      "arset": 937,
      "Ġlang": 938,
      "device": 939,
      "viewport": 940,
      "Ġiniti": 941,
      "ystem": 942,
      "Ġcharset": 943,
      "Ġinitial": 944,
      "('": 945,
      "Element": 946,
      "ument": 947,
      "document": 948,
      "sion": 949,
      "')": 950,
      ").": 951,
      "Seg": 952,
      "oe": 953,
      "Ġsans": 954,
      "Ġsystem": 955,
      "Segoe": 956,
      "!).": 957,
      ">,": 958,
      "By": 959,
      "Id": 960,
      "createRoot": 961,
      "cli": 962,
      "preview": 963,
      "Ġid": 964,
      "Ġpreview": 965,
      "Ġsrc": 966,
      "getElement": 967,
      "render": 968,
      "version": 969,
      "')!).": 970,
      "ById": 971,
      "client": 972,
      "getElementById": 973,
      "ĠButton": 974,
      "Work": 975,
      "300": 976,
      "bor": 977,
      "arbor": 978,
      "isting": 979,
      "rainer": 980,
      "ansi": 981,
      "Ġtransi": 982,
      "Ġtransition": 983,
      "ary": 984,
      "72": 985,
      "mary": 986,
      "grid": 987,
      "172": 988,
      "page": 989,
      "iant": 990,
      "Ġvariant": 991,
      "Ġpage": 992,
      "ĠLeg": 993,
      "ĠLegal": 994,
      "ĠAgency": 995,
      "Ġgrid": 996,
      "cols": 997,
      "Ġsty": 998,
      "ted": 999,
      "features": 1000,
      "dren": 1001,
      "pa": 1002,
      "Ġcomp": 1003,
      "ildren": 1004,
      "stinations": 1005,
      "Ġcomponent": 1006,
      "primary": 1007,
      "Ġshadow": 1008,
      "ur": 1009,
      "about": 1010,
      "fit": 1011,
      "servations": 1012,
      "py": 1013,
      "90": 1014,
      "ame": 1015,
      "Ġmode": 1016,
      "bit": 1017,
      "qu": 1018,
      "orge": 1019,
      "ames": 1020,
      "qua": 1021,
      "Ġconst": 1022,
      "et": 1023,
      "ĠAbout": 1024,
      "Or": 1025,
      "Ġstarted": 1026,
      "rice": 1027,
      "nts": 1028,
      "reas": 1029,
      "lasses": 1030,
      "ttorneys": 1031,
      "Pricing": 1032,
      "12": 1033,
      "Ġfeatures": 1034,
      "ast": 1035,
      "70": 1036,
      "md": 1037,
      "ding": 1038,
      "AboutPage": 1039,
      "fc": 1040,
      "fafc": 1041,
      "ĠAboutPage": 1042,
      "Ġth": 1043,
      "ppe": 1044,
      "lax": 1045,
      "em": 1046,
      "rcase": 1047,
      "ppercase": 1048,
      "Ġle": 1049,
      "Ġuppercase": 1050,
      "ading": 1051,
      "ĠSaa": 1052,
      "ĠSaaS": 1053,
      "ĠRea": 1054,
      "Map": 1055,
      "lty": 1056,
      "umen": 1057,
      "relax": 1058,
      "ental": 1059,
      "ĠSpa": 1060,
      "ĠDental": 1061,
      "edar": 1062,
      "ĠGames": 1063,
      "Orbit": 1064,
      "Ġleading": 1065,
      "ĠRealty": 1066,
      "Maple": 1067,
      "relaxed": 1068,
      ":-": 1069,
      "shadow": 1070,
      "anslate": 1071,
      "translate": 1072,
      "500": 1073,
      "We": 1074,
      "vel": 1075,
      "Ġpla": 1076,
      "servationsPage": 1077,
      "WorkPage": 1078,
      "da": 1079,
      "10": 1080,
      "eaturesPage": 1081,
      "very": 1082,
      "cta": 1083,
      "subtitle": 1084,
      "Packages": 1085,
      "Ġevery": 1086,
      "stinationsPage": 1087,
      "come": 1088,
      "lcome": 1089,
      "Welcome": 1090,
      "avel": 1091,
      "Age": 1092,
      "Area": 1093,
      "Listing": 1094,
      "Practice": 1095,
      "Trainer": 1096,
      "ysPage": 1097,
      "ntsPage": 1098,
      "lassesPage": 1099,
      "ttorneysPage": 1100,
      "AreasPage": 1101,
      ".</": 1102,
      "Bean": 1103,
      "fe": 1104,
      "sp": 1105,
      "Ġof": 1106,
      "Build": 1107,
      "ĠMenuPage": 1108,
      "ĠPricing": 1109,
      "orm": 1110,
      "onsi": 1111,
      "sponsi": 1112,
      "sponsive": 1113,
      "Modern": 1114,
      "----": 1115,
      "form": 1116,
      "json": 1117,
      "Ġon": 1118,
      "Ġsc": 1119,
      "Op": 1120,
      "ook": 1121,
      "ling": 1122,
      "oin": 1123,
      "pack": 1124,
      "|>@": 1125,
      "|>{": 1126,
      "package": 1127,
      "rst": 1128,
      "first": 1129,
      "timi": 1130,
      "timiz": 1131,
      "Optimiz": 1132,
      ".\",": 1133,
      "base": 1134,
      "ance": 1135,
      "erform": 1136,
      "Responsive": 1137,
      "ooks": 1138,
      "Optimized": 1139,
      "erformance": 1140,
      "Tailwind": 1141,
      "20": 1142,
      "Fast": 1143,
      "ous": 1144,
      "Ġscreen": 1145,
      "?</": 1146,
      "Join": 1147,
      "Looks": 1148,
      "lity": 1149,
      "tility": 1150,
      "Ġperformance": 1151,
      "Ġtoda": 1152,
      "Ġtry": 1153,
      "ands": 1154,
      "appy": 1155,
      "Ġhappy": 1156,
      "Ġgrea": 1157,
      "Ġchildren": 1158,
      "Ġutility": 1159,
      "ĠGet": 1160,
      "Ready": 1161,
      "Ġstyling": 1162,
      "Ġthous": 1163,
      "Ġtoday": 1164,
      "Ġgreat": 1165,
      "Ġthousands": 1166,
      "Ġprice": 1167,
      "Ġ'$": 1168,
      "ĠHarbor": 1169,
      "Ġage": 1170,
      "Ġlu": 1171,
      "Pulse": 1172,
      "${": 1173,
      "`${": 1174,
      "Ġ`${": 1175,
      "les": 1176,
      "offe": 1177,
      "ĠButtonProps": 1178,
      "offee": 1179,
      "|><!": 1180,
      "hop": 1181,
      "Ġcoffee": 1182,
      "xur": 1183,
      "xury": 1184,
      "imal": 1185,
      "Ġminimal": 1186,
      "hi": 1187,
      "Ġluxury": 1188,
      "ful": 1189,
      "yful": 1190,
      "orpor": 1191,
      "Ġcorpor": 1192,
      "Ġplayful": 1193,
      "Ġcorporate": 1194,
      "phi": 1195,
      "orphi": 1196,
      "orphism": 1197,
      "morphism": 1198,
      "lassmorphism": 1199,
      "Ġglassmorphism": 1200,
      "400": 1201,
      "listing": 1202,
      "ainers": 1203,
      "listings": 1204,
      "700": 1205,
      "Ġshop": 1206,
      "ĠOrbit": 1207,
      "ĠMaple": 1208,
      "ĠCedar": 1209,
      "ĠForge": 1210,
      "ĠLumen": 1211,
      "ĠAqua": 1212,
      "ĠPackages": 1213,
      "ns": 1214,
      "fol": 1215,
      "io": 1216,
      "folio": 1217,
      "aas": 1218,
      "Destinations": 1219,
      "Ġagency": 1220,
      "Ġtravel": 1221,
      "portfolio": 1222,
      "Ġmenu": 1223,
      "ost": 1224,
      "ReservationsPage": 1225,
      "host": 1226,
      "ĠDe": 1227,
      "Ġportfolio": 1228,
      "FeaturesPage": 1229,
      "PricingPage": 1230,
      "DestinationsPage": 1231,
      "PackagesPage": 1232,
      "AttorneysPage": 1233,
      "ClassesPage": 1234,
      "AgentsPage": 1235,
      "ListingsPage": 1236,
      "PracticeAreasPage": 1237,
      "TrainersPage": 1238,
      "ĠListing": 1239,
      "ĠAreas": 1240,
      "ĠPractice": 1241,
      "ĠTrainer": 1242,
      "Harbor": 1243,
      "sty": 1244,
      "Reservations": 1245,
      "Ġ'/": 1246,
      "ĠReservationsPage": 1247,
      "ĠWorkPage": 1248,
      "Features": 1249,
      "Ġreal": 1250,
      "ĠFeaturesPage": 1251,
      "ĠPricingPage": 1252,
      "ĠPackagesPage": 1253,
      "ĠDestinationsPage": 1254,
      "Attorneys": 1255,
      "Classes": 1256,
      "tup": 1257,
      "Ġsaas": 1258,
      "ĠClassesPage": 1259,
      "ĠAttorneysPage": 1260,
      "ĠAgentsPage": 1261,
      "Ġstartup": 1262,
      "Agents": 1263,
      "Listings": 1264,
      "Trainers": 1265,
      "ĠListingsPage": 1266,
      "ĠPracticeAreasPage": 1267,
      "ĠTrainersPage": 1268,
      "ir": 1269,
      "ym": 1270,
      "Ġfitness": 1271,
      "Ġfir": 1272,
      "Ġresta": 1273,
      "Ġlaw": 1274,
      "Ġesta": 1275,
      "Ġgym": 1276,
      "urant": 1277,
      "Ġfirm": 1278,
      "Ġrestaurant": 1279,
      "Ġestate": 1280,
      "Node": 1281,
      "inline": 1282,
      "Ġ]": 1283,
      "ch": 1284,
      "Ġ:": 1285,
      "React": 1286,
      "Ġ?": 1287,
      "Ġ|": 1288,
      "ghost": 1289,
      "Ġbase": 1290,
      "Aqua": 1291,
      "Cedar": 1292,
      "Forge": 1293,
      "Lumen": 1294,
      "#'": 1295,
      "==": 1296,
      "href": 1297,
      "}>": 1298,
      "Ġ'#'": 1299,
      "Ġ===": 1300,
      "Ġstyles": 1301,
      "styles": 1302,
      "children": 1303,
      "ReactNode": 1304,
      "ravel": 1305,
      "work": 1306,
      "reservations": 1307,
      "ĠHome": 1308,
      "--------": 1309,
      "pricing": 1310,
      "packages": 1311,
      "destinations": 1312,
      "areas": 1313,
      "attorneys": 1314,
      "classes": 1315,
      "practice": 1316,
      "agents": 1317,
      "trainers": 1318,
      "um": 1319,
      "48": 1320,
      "948": 1321,
      "9488": 1322,
      "ima": 1323,
      "ra": 1324,
      "Ġan": 1325,
      "mit": 1326,
      "imations": 1327,
      "rien": 1328,
      "perien": 1329,
      "perience": 1330,
      "lo": 1331,
      "Ġex": 1332,
      "ooth": 1333,
      "Ġexperience": 1334,
      "Get": 1335,
      "ails": 1336,
      "ummit": 1337,
      "pla": 1338,
      "Ġplans": 1339,
      "29": 1340,
      "99": 1341,
      "Star": 1342,
      "Tea": 1343,
      "Travel": 1344,
      "price": 1345,
      "Ġanimations": 1346,
      "plans": 1347,
      "Starter": 1348,
      "Team": 1349,
      "Ġsmooth": 1350,
      "Button": 1351,
      "69": 1352,
      "ci": 1353,
      "ĠTr": 1354,
      "Ġpricing": 1355,
      "Ġpackages": 1356,
      "Ġ'@": 1357,
      "Ġdestinations": 1358,
      "Ġwork": 1359,
      "Ġlistings": 1360,
      "Ġclasses": 1361,
      "Ġpractice": 1362,
      "Ġreservations": 1363,
      "Ġtrainers": 1364,
      "Ġareas": 1365,
      "Ġattorneys": 1366,
      "Ġagents": 1367,
      "03": 1368,
      "45": 1369,
      "bean": 1370,
      "0369": 1371,
      "09": 1372,
      "309": 1373,
      "aed": 1374,
      "gap": 1375,
      "123": 1376,
      "ĠTrails": 1377,
      "45309": 1378,
      "house": 1379,
      "sh": 1380,
      "alty": 1381,
      "Â·": 1382,
      "ĠÂ·": 1383,
      "ek": 1384,
      "resh": 1385,
      "Ġweek": 1386,
      "px": 1387,
      "Ġuse": 1388,
      "Con": 1389,
      "gra": 1390,
      "full": 1391,
      "zy": 1392,
      "dient": 1393,
      "gradient": 1394,
      "Ġmt": 1395,
      "----------------": 1396,
      "ozy": 1397,
      "ia": 1398,
      "Ġvia": 1399,
      "no": 1400,
      "ĠSummit": 1401,
      "Ġtailwindcss": 1402,
      "fig": 1403,
      "Ġdefine": 1404,
      "Config": 1405,
      "ĠdefineConfig": 1406,
      "ct": 1407,
      "ramer": 1408,
      "ly": 1409,
      "max": 1410,
      "nova": 1411,
      "Ġ>": 1412,
      "aqua": 1413,
      "forge": 1414,
      "gal": 1415,
      "games": 1416,
      "harbor": 1417,
      "ios": 1418,
      "pulse": 1419,
      "studio": 1420,
      "spa": 1421,
      "saas": 1422,
      "wanderlust": 1423,
      "orbit": 1424,
      "dent": 1425,
      "legal": 1426,
      "realty": 1427,
      "agency": 1428,
      "axios": 1429,
      "lumen": 1430,
      "cedar": 1431,
      "maple": 1432,
      "fitness": 1433,
      "dental": 1434,
      "Ro": 1435,
      "as": 1436,
      "ach": 1437,
      "Ġreact": 1438,
      "cide": 1439,
      "Ġro": 1440,
      "Ġda": 1441,
      "ning": 1442,
      "ree": 1443,
      "es": 1444,
      "framer": 1445,
      "ĠCards": 1446,
      "motion": 1447,
      "Ġaxios": 1448,
      "Ġno": 1449,
      "Order": 1450,
      "Ġnow": 1451,
      "ĠRo": 1452,
      "Fi": 1453,
      "hover": 1454,
      "Ġpb": 1455,
      "Ġeach": 1456,
      "Ġcal": 1457,
      "Ġroas": 1458,
      "ry": 1459,
      "allery": 1460,
      "ĠTravel": 1461,
      "Ġ'/',": 1462,
      "Ba": 1463,
      "Cozy": 1464,
      "Fresh": 1465,
      "Past": 1466,
      "Sing": 1467,
      "Spe": 1468,
      "Wi": 1469,
      "igin": 1470,
      "ked": 1471,
      "pac": 1472,
      "wn": 1473,
      "orning": 1474,
      "origin": 1475,
      "Ġfresh": 1476,
      "Ġpri": 1477,
      "Ġmorning": 1478,
      "ries": 1479,
      "Ġbean": 1480,
      "Ġghost": 1481,
      "ĠSpac": 1482,
      "Ġvariants": 1483,
      "Ġthree": 1484,
      "cialty": 1485,
      "Ġweekly": 1486,
      "Ġdawn": 1487,
      "ĠRoast": 1488,
      "Ġcalm": 1489,
      "Ġroasted": 1490,
      "Baked": 1491,
      "Pastries": 1492,
      "Single": 1493,
      "Specialty": 1494,
      "Ġprimary": 1495,
      "Ġmornings": 1496,
      "Ġbeans": 1497,
      "ĠSpace": 1498,
      "Ġtypescript": 1499,
      "Ġlucide": 1500,
      "Ġ],": 1501,
      "min": 1502,
      "rem": 1503,
      "Summit": 1504,
      "Ġpro": 1505,
      "pad": 1506,
      "den": 1507,
      "idden": 1508,
      "lock": 1509,
      "ĠMenu": 1510,
      "top": 1511,
      "Ġthe": 1512,
      "low": 1513,
      "tate": 1514,
      "ext": 1515,
      "older": 1516,
      "tive": 1517,
      "style": 1518,
      "ble": 1519,
      "holder": 1520,
      "ceholder": 1521,
      "mon": 1522,
      "je": 1523,
      "ated": 1524,
      "ial": 1525,
      "stimon": 1526,
      "ĠShop": 1527,
      "stimonial": 1528,
      "Pla": 1529,
      "rol": 1530,
      "ffe": 1531,
      "ĠTe": 1532,
      "ES": 1533,
      "font": 1534,
      "one": 1535,
      "Effe": 1536,
      "able": 1537,
      "is": 1538,
      "ĠBlo": 1539,
      "Effect": 1540,
      "back": 1541,
      "uilder": 1542,
      "ĠAI": 1543,
      "ĠTone": 1544,
      "Placeholder": 1545,
      "afe": 1546,
      "mp": 1547,
      "aptop": 1548,
      "ĠAn": 1549,
      "------------------": 1550,
      "----------------------------------": 1551,
      "lamp": 1552,
      "ject": 1553,
      "ĠBloom": 1554,
      "Gallery": 1555,
      "State": 1556,
      "og": 1557,
      "ĠuseEffect": 1558,
      "ĠuseState": 1559,
      "Next": 1560,
      "clamp": 1561,
      "ile": 1562,
      "ĠI": 1563,
      "ĠSc": 1564,
      "color": 1565,
      "Te": 1566,
      "Ġ1": 1567,
      "Me": 1568,
      "brow": 1569,
      "ebrow": 1570,
      "yebrow": 1571,
      "ĠO": 1572,
      "Ġline": 1573,
      "medi": 1574,
      "stimonials": 1575,
      "medium": 1576,
      "ticky": 1577,
      "all": 1578,
      "roll": 1579,
      "mb": 1580,
      "Ġis": 1581,
      "romp": 1582,
      "ĠReservations": 1583,
      "loa": 1584,
      "sk": 1585,
      "Ġsh": 1586,
      "An": 1587,
      "Call": 1588,
      "Shop": 1589,
      "]\"": 1590,
      "block": 1591,
      "cate": 1592,
      "hidden": 1593,
      "utle": 1594,
      "ĠM": 1595,
      "Ġimport": 1596,
      "Ġlg": 1597,
      "Ġmb": 1598,
      "Ġmd": 1599,
      "Ġmx": 1600,
      "imated": 1601,
      "Ġsticky": 1602,
      "Ġblock": 1603,
      "uncate": 1604,
      "Ġtruncate": 1605,
      "Ġhidden": 1606,
      "ĠReactNode": 1607,
      "ĠuseMe": 1608,
      "ĠuseCall": 1609,
      "Ġprops": 1610,
      "ĠOutle": 1611,
      "ĠuseMemo": 1612,
      "ĠuseCallback": 1613,
      "ĠOutlet": 1614,
      "Ġcozy": 1615,
      "ĠCoffee": 1616,
      "Content": 1617,
      "Laptop": 1618,
      "The": 1619,
      "vice": 1620,
      "ww": 1621,
      "ĠWork": 1622,
      "ĠFeatures": 1623,
      "ervice": 1624,
      "reative": 1625,
      "imation": 1626,
      "rompt": 1627,
      ".\\": 1628,
      "ĠCafe": 1629,
      "stic": 1630,
      "Ġproject": 1631,
      "22": 1632,
      "Ac": 1633,
      "DO": 1634,
      "shop": 1635,
      "remi": 1636,
      "Ġbuilder": 1637,
      "jsx": 1638,
      "2022": 1639,
      "DOM": 1640,
      "remium": 1641,
      "75": 1642,
      ":\\": 1643,
      "seo": 1644,
      "eal": 1645,
      "ener": 1646,
      "ĠClasses": 1647,
      "ĠAttorneys": 1648,
      "ĠAgents": 1649,
      "Website": 1650,
      "ĠDestinations": 1651,
      "ĠListings": 1652,
      "ĠTrainers": 1653,
      "ĠTest": 1654,
      "so": 1655,
      "summit": 1656,
      "ward": 1657,
      "Ġby": 1658,
      "ould": 1659,
      "trails": 1660,
      "sig": 1661,
      "ĠAnimation": 1662,
      "Ġshould": 1663,
      "bile": 1664,
      "Ġse": 1665,
      "Ġsection": 1666,
      "Produ": 1667,
      "siz": 1668,
      "219": 1669,
      "eyebrow": 1670,
      "sans": 1671,
      "tfolio": 1672,
      "âĨ": 1673,
      "ting": 1674,
      "ortfolio": 1675,
      "website": 1676,
      "libr": 1677,
      "ĠScroll": 1678,
      "ĠisAc": 1679,
      "size": 1680,
      "2193": 1681,
      "âĨĵ": 1682,
      "ĠisActive": 1683,
      ":#": 1684,
      ":.": 1685,
      "Li": 1686,
      "margin": 1687,
      "veal": 1688,
      "ĠWebsite": 1689,
      "our": 1690,
      "cons": 1691,
      "ĠGallery": 1692,
      "log": 1693,
      "AP": 1694,
      "ior": 1695,
      "nior": 1696,
      "oc": 1697,
      "qui": 1698,
      "des": 1699,
      "ark": 1700,
      "aral": 1701,
      "Ġdesig": 1702,
      "----------------------------------\\": 1703,
      "Theme": 1704,
      "Ġsenior": 1705,
      "quire": 1706,
      "arallax": 1707,
      "><": 1708,
      "kp": 1709,
      "reakp": 1710,
      "oints": 1711,
      "Testimonials": 1712,
      "reakpoints": 1713,
      "Ġl": 1714,
      "Ġy": 1715,
      "Ġpremium": 1716,
      "ood": 1717,
      "Ġas": 1718,
      "ĠPortfolio": 1719,
      "ĠIn": 1720,
      "Gener": 1721,
      "nS": 1722,
      "wa": 1723,
      "})": 1724,
      "tag": 1725,
      "oft": 1726,
      "Generated": 1727,
      "Flow": 1728,
      "In": 1729,
      "cti": 1730,
      "ection": 1731,
      "mage": 1732,
      "modern": 1733,
      "mooth": 1734,
      "nC": 1735,
      "tform": 1736,
      "uxury": 1737,
      "vity": 1738,
      "Ġn": 1739,
      "Ġar": 1740,
      "Ġli": 1741,
      "Ġsli": 1742,
      "alse": 1743,
      "ĠSection": 1744,
      "opment": 1745,
      "usable": 1746,
      "velopment": 1747,
      "ĠDevelopment": 1748,
      "loating": 1749,
      "Animated": 1750,
      "ervices": 1751,
      "ctivity": 1752,
      "Ġlike": 1753,
      "##": 1754,
      "></": 1755,
      "],": 1756,
      "coffee": 1757,
      "ft": 1758,
      "hy": 1759,
      "pog": 1760,
      "Ġ.": 1761,
      "tistic": 1762,
      "lay": 1763,
      "Ġfalse": 1764,
      "Ġclass": 1765,
      "Ġ})": 1766,
      "raphy": 1767,
      "splay": 1768,
      "cial": 1769,
      "pography": 1770,
      ",#": 1771,
      "gallery": 1772,
      "nM": 1773,
      "nP": 1774,
      "nLaptop": 1775,
      "Ġta": 1776,
      "Ġdi": 1777,
      "ĠNext": 1778,
      "meline": 1779,
      "responsive": 1780,
      "ger": 1781,
      "per": 1782,
      "ĠAww": 1783,
      "GalleryPage": 1784,
      "Ġ15": 1785,
      "ĠMo": 1786,
      "wards": 1787,
      "ĠGalleryPage": 1788,
      "Ġlook": 1789,
      "ĠAwwwards": 1790,
      "Che": 1791,
      "Emit": 1792,
      "Iter": 1793,
      "ba": 1794,
      "bun": 1795,
      "blog": 1796,
      "bChe": 1797,
      "clu": 1798,
      "dle": 1799,
      "ip": 1800,
      "icons": 1801,
      "rOp": 1802,
      "tter": 1803,
      "Ġbody": 1804,
      "inclu": 1805,
      "Ġplugin": 1806,
      "board": 1807,
      "(),": 1808,
      "()],": 1809,
      "compile": 1810,
      "strict": 1811,
      "lution": 1812,
      "lucide": 1813,
      "Reso": 1814,
      "ĠBuilder": 1815,
      "ĠPrompt": 1816,
      "moduleReso": 1817,
      "lib": 1818,
      "target": 1819,
      "shboard": 1820,
      "noEmit": 1821,
      "ESNext": 1822,
      "skip": 1823,
      "LibChe": 1824,
      "Iterable": 1825,
      "bundle": 1826,
      "rOptions": 1827,
      "include": 1828,
      "Ġplugins": 1829,
      "compilerOptions": 1830,
      "moduleResolution": 1831,
      "skipLibChe": 1832,
      "bundler": 1833,
      "skipLibCheck": 1834,
      "Back": 1835,
      "Dark": 1836,
      "Image": 1837,
      "Luxury": 1838,
      "SAP": 1839,
      "Text": 1840,
      "ator": 1841,
      "class": 1842,
      "cture": 1843,
      "imeline": 1844,
      "obile": 1845,
      "parallax": 1846,
      "tack": 1847,
      "ype": 1848,
      "Ġbo": 1849,
      "Ġpa": 1850,
      "Ġmov": 1851,
      "Ġsoft": 1852,
      "out": 1853,
      "ĠLo": 1854,
      "ĠLaptop": 1855,
      "Ġeyebrow": 1856,
      "ĠSmooth": 1857,
      "ĠStack": 1858,
      "Reusable": 1859,
      "ssion": 1860,
      "ĠTimeline": 1861,
      "ĠGSAP": 1862,
      "Ġone": 1863,
      "Ġscrol": 1864,
      "ĠuseTheme": 1865,
      "ĠShopPage": 1866,
      "stimonialsPage": 1867,
      "ShopPage": 1868,
      "ervicesPage": 1869,
      "ocal": 1870,
      "Ġartistic": 1871,
      "Ġslides": 1872,
      "Ġscrolling": 1873,
      "73": 1874,
      "AQ": 1875,
      "breakpoints": 1876,
      "eme": 1877,
      "fault": 1878,
      "ic": 1879,
      "man": 1880,
      "mood": 1881,
      "plate": 1882,
      "prompt": 1883,
      "up": 1884,
      "}\",": 1885,
      "ĠĠĠĠĠĠĠĠĠĠĠĠĠĠĠ": 1886,
      "tes": 1887,
      "lanc": 1888,
      "dens": 1889,
      "default": 1890,
      "require": 1891,
      "seman": 1892,
      "arm": 1893,
      "aries": 1894,
      "image": 1895,
      "theme": 1896,
      "animations": 1897,
      "Ġresponsive": 1898,
      "enable": 1899,
      "typography": 1900,
      "confi": 1901,
      "={({": 1902,
      "Project": 1903,
      "weight": 1904,
      "mobile": 1905,
      "dence": 1906,
      "sitemap": 1907,
      "usage": 1908,
      "template": 1909,
      "raw": 1910,
      "notes": 1911,
      "padding": 1912,
      "background": 1913,
      "social": 1914,
      "Product": 1915,
      "library": 1916,
      "libraries": 1917,
      "tags": 1918,
      "balanc": 1919,
      "density": 1920,
      "required": 1921,
      "semantic": 1922,
      "enabled": 1923,
      "confidence": 1924,
      "balanced": 1925,
      "569": 1926,
      "Act": 1927,
      "Cafe": 1928,
      "EO": 1929,
      "Sc": 1930,
      "UX": 1931,
      "Your": 1932,
      "__": 1933,
      "ade": 1934,
      "ation": 1935,
      "cts": 1936,
      "ctor": 1937,
      "nL": 1938,
      "ok": 1939,
      "oper": 1940,
      "que": 1941,
      "sub": 1942,
      "ust": 1943,
      "Ġ3": 1944,
      "Ġorder": 1945,
      "Ġuser": 1946,
      "ĠModern": 1947,
      "Ġ\"#": 1948,
      "Ġcreative": 1949,
      "rector": 1950,
      "Ġmust": 1951,
      "Ġdevel": 1952,
      "ner": 1953,
      "ĠFlow": 1954,
      "ments": 1955,
      "ears": 1956,
      "Ġwor": 1957,
      "Ġgallery": 1958,
      "fade": 1959,
      "Ġonline": 1960,
      "Tech": 1961,
      "Animations": 1962,
      "Ġdesign": 1963,
      "Ġdesigner": 1964,
      "Ġyears": 1965,
      "ĠInter": 1966,
      "Ġtask": 1967,
      "Ġdirector": 1968,
      "ĠMotion": 1969,
      "subtle": 1970,
      "Ġordering": 1971,
      "Ġdeveloper": 1972,
      "13": 1973,
      "475": 1974,
      "Services": 1975,
      "ec": 1976,
      "gn": 1977,
      "ike": 1978,
      "ign": 1979,
      "nF": 1980,
      "nding": 1981,
      "vw": 1982,
      "Ġauto": 1983,
      "inear": 1984,
      "deg": 1985,
      "acing": 1986,
      "Ġmain": 1987,
      "trans": 1988,
      "align": 1989,
      "Ġlanding": 1990,
      "720": 1991,
      "spacing": 1992,
      "ĠTestimonials": 1993,
      "ware": 1994,
      "135": 1995,
      "475569": 1996,
      "transform": 1997,
      "11": 1998,
      "37": 1999,
      "Each": 2000,
      "Git": 2001,
      "Hub": 2002,
      "Hover": 2003,
      "Min": 2004,
      "St": 2005,
      "Tri": 2006,
      "Type": 2007,
      "``": 2008,
      "ag": 2009,
      "ades": 2010,
      "ashboard": 2011,
      "dline": 2012,
      "el": 2013,
      "eer": 2014,
      "for": 2015,
      "fin": 2016,
      "gle": 2017,
      "gger": 2018,
      "hree": 2019,
      "istic": 2020,
      "mail": 2021,
      "nA": 2022,
      "nAnimated": 2023,
      "pi": 2024,
      "ptop": 2025,
      "ucture": 2026,
      "ync": 2027,
      "yloa": 2028,
      "yout": 2029,
      "Ġen": 2030,
      "ĠPro": 2031,
      "ĠRouter": 2032,
      "ĠOptimized": 2033,
      "Ġfades": 2034,
      "Ġcard": 2035,
      "rodu": 2036,
      "actions": 2037,
      "arge": 2038,
      "right": 2039,
      "imate": 2040,
      "Ġsite": 2041,
      "Ġbreakpoints": 2042,
      "tructure": 2043,
      "eadline": 2044,
      "end": 2045,
      "omponents": 2046,
      "ackground": 2047,
      "ber": 2048,
      "ript": 2049,
      "ĠHeadline": 2050,
      "Ġawa": 2051,
      "Ġapi": 2052,
      "netic": 2053,
      "andard": 2054,
      "ĠCreative": 2055,
      "ĠComponents": 2056,
      "ĠFramer": 2057,
      "ĠFloating": 2058,
      "Ġlaptop": 2059,
      "ĠLog": 2060,
      "ĠLocal": 2061,
      "ĠLarge": 2062,
      "ĠStructure": 2063,
      "ĠBackground": 2064,
      "ubmit": 2065,
      "ĠPla": 2066,
      "ĠResponsive": 2067,
      "ĠReveal": 2068,
      "gineer": 2069,
      "ĠDark": 2070,
      "Ġinto": 2071,
      "ĠThi": 2072,
      "ĠThree": 2073,
      "plit": 2074,
      "Experience": 2075,
      "active": 2076,
      "ĠGlow": 2077,
      "ĠGener": 2078,
      "ĠButtons": 2079,
      "Ġstyle": 2080,
      "Ġleft": 2081,
      "fession": 2082,
      "Ġscroll": 2083,
      "Ġrealistic": 2084,
      "Ġanimate": 2085,
      "Rotate": 2086,
      "Ġrotate": 2087,
      "Ġdata": 2088,
      "jects": 2089,
      "ĠAnimated": 2090,
      "ĠScreen": 2091,
      "Productivity": 2092,
      "ĠScrollTri": 2093,
      "API": 2094,
      "Ġyour": 2095,
      "Ġasync": 2096,
      "Infin": 2097,
      "Ġnot": 2098,
      "Ġmove": 2099,
      "Ġsoftware": 2100,
      "ĠLoading": 2101,
      "Script": 2102,
      "Ġworld": 2103,
      "GitHub": 2104,
      "Standard": 2105,
      "agnetic": 2106,
      "yload": 2107,
      "Ġengineer": 2108,
      "ĠLogo": 2109,
      "ĠThis": 2110,
      "ĠGenerator": 2111,
      "fessional": 2112,
      "Ġrotates": 2113,
      "ĠScrollTrigger": 2114,
      "Infinite": 2115,
      "66": 2116,
      "766": 2117,
      "For": 2118,
      "cozy": 2119,
      "ff": 2120,
      "food": 2121,
      "linear": 2122,
      "ow": 2123,
      "system": 2124,
      "uppercase": 2125,
      "letter": 2126,
      "arque": 2127,
      "display": 2128,
      "Ġtrans": 2129,
      "bever": 2130,
      "ĠServices": 2131,
      "ckup": 2132,
      "feff": 2133,
      "Ġshow": 2134,
      "731": 2135,
      "ProductGrid": 2136,
      "ecfeff": 2137,
      "arquee": 2138,
      "beverage": 2139,
      ")\\": 2140,
      "FAQ": 2141,
      "Mobile": 2142,
      "Pin": 2143,
      "SS": 2144,
      "ServicesPage": 2145,
      "creative": 2146,
      "eau": 2147,
      "fine": 2148,
      "ire": 2149,
      "nPro": 2150,
      "nBack": 2151,
      "nImage": 2152,
      "nText": 2153,
      "nReusable": 2154,
      "tto": 2155,
      "ttr": 2156,
      "use": 2157,
      "Ġ5": 2158,
      "Ġti": 2159,
      "Ġop": 2160,
      "Ġit": 2161,
      "testimonials": 2162,
      "insp": 2163,
      "Ġreveal": 2164,
      "ĠHover": 2165,
      "Ġaward": 2166,
      "Ġattr": 2167,
      "ĠCSS": 2168,
      "ĠFade": 2169,
      "winning": 2170,
      "luxury": 2171,
      "ĠSli": 2172,
      "ĠServicesPage": 2173,
      "ductivity": 2174,
      "service": 2175,
      "Ġplatform": 2176,
      "ormal": 2177,
      "aster": 2178,
      "Ġproductivity": 2179,
      "ĠTestimonialsPage": 2180,
      "ĠIt": 2181,
      "TestimonialsPage": 2182,
      "quirements": 2183,
      "tagger": 2184,
      "FlowMin": 2185,
      "Ġnormal": 2186,
      "nPin": 2187,
      "oking": 2188,
      "eauti": 2189,
      "ired": 2190,
      "ttom": 2191,
      "inspired": 2192,
      "Ġattractive": 2193,
      "services": 2194,
      "FlowMind": 2195,
      "Blog": 2196,
      "Doc": 2197,
      "Dashboard": 2198,
      "ai": 2199,
      "nNext": 2200,
      "nTech": 2201,
      "nAnimations": 2202,
      "rand": 2203,
      "ĠW": 2204,
      "Ġbrand": 2205,
      "ĠFAQ": 2206,
      "Requirements": 2207,
      "ĠRoaster": 2208,
      "Ġbooking": 2209,
      "\"}": 2210,
      "':": 2211,
      "(()": 2212,
      "173": 2213,
      "46": 2214,
      ":\"": 2215,
      "AI": 2216,
      "Ai": 2217,
      "Blur": 2218,
      "Bike": 2219,
      "Code": 2220,
      "Called": 2221,
      "Color": 2222,
      "Coffee": 2223,
      "Creative": 2224,
      "DB": 2225,
      "DD": 2226,
      "Di": 2227,
      "Dur": 2228,
      "Edi": 2229,
      "Every": 2230,
      "Email": 2231,
      "Glass": 2232,
      "Glow": 2233,
      "Hooks": 2234,
      "Heal": 2235,
      "Ins": 2236,
      "Icons": 2237,
      "Jou": 2238,
      "La": 2239,
      "Local": 2240,
      "Magnetic": 2241,
      "No": 2242,
      "PI": 2243,
      "Portfolio": 2244,
      "RL": 2245,
      "Right": 2246,
      "RES": 2247,
      "Sli": 2248,
      "SDD": 2249,
      "Til": 2250,
      "Tog": 2251,
      "URL": 2252,
      "Ver": 2253,
      "\\\"": 2254,
      "])": 2255,
      "ad": 2256,
      "adi": 2257,
      "ave": 2258,
      "ayout": 2259,
      "bil": 2260,
      "cn": 2261,
      "cor": 2262,
      "chite": 2263,
      "create": 2264,
      "case": 2265,
      "cator": 2266,
      "dding": 2267,
      "dmin": 2268,
      "dcn": 2269,
      "ey": 2270,
      "erc": 2271,
      "eft": 2272,
      "eel": 2273,
      "fr": 2274,
      "fac": 2275,
      "flow": 2276,
      "go": 2277,
      "ggle": 2278,
      "hen": 2279,
      "hooks": 2280,
      "ila": 2281,
      "ission": 2282,
      "iber": 2283,
      "kil": 2284,
      "ls": 2285,
      "lle": 2286,
      "lth": 2287,
      "lut": 2288,
      "lling": 2289,
      "np": 2290,
      "nu": 2291,
      "nCreate": 2292,
      "nReact": 2293,
      "nThe": 2294,
      "nProject": 2295,
      "nEach": 2296,
      "nHover": 2297,
      "nRotate": 2298,
      "nGitHub": 2299,
      "nInfinite": 2300,
      "oy": 2301,
      "oom": 2302,
      "oun": 2303,
      "old": 2304,
      "ocial": 2305,
      "ple": 2306,
      "pward": 2307,
      "produ": 2308,
      "sor": 2309,
      "tte": 2310,
      "utu": 2311,
      "usion": 2312,
      "upa": 2313,
      "uber": 2314,
      "warm": 2315,
      "yte": 2316,
      "yth": 2317,
      "ypography": 2318,
      "yright": 2319,
      "Ġme": 2320,
      "Ġport": 2321,
      "ĠPage": 2322,
      "Ġser": 2323,
      "Ġwhite": 2324,
      "ĠMode": 2325,
      "Ġopacity": 2326,
      "Ġus": 2327,
      "Ġdow": 2328,
      "ĠElement": 2329,
      "Ġdocument": 2330,
      "ĠOptimiz": 2331,
      "ĠEffect": 2332,
      "ĠMe": 2333,
      "ĠProduct": 2334,
      "Ġok": 2335,
      "Ġright": 2336,
      "ĠExperience": 2337,
      "ĠProductivity": 2338,
      "tegra": 2339,
      "ongo": 2340,
      "tinu": 2341,
      "lack": 2342,
      "meout": 2343,
      "Ġfol": 2344,
      "Ġfet": 2345,
      "Ġfloa": 2346,
      "Ġfloating": 2347,
      "Ġfeel": 2348,
      "Ġcle": 2349,
      "level": 2350,
      "rebase": 2351,
      "ssage": 2352,
      "ges": 2353,
      "\"><": 2354,
      "tional": 2355,
      "ntrodu": 2356,
      "Ġparticle": 2357,
      "Ġpromp": 2358,
      "Ġprompt": 2359,
      "ars": 2360,
      "Ġmy": 2361,
      "Ġmouse": 2362,
      "Ġmobile": 2363,
      "ristic": 2364,
      "toggle": 2365,
      "imila": 2366,
      "Ġstor": 2367,
      "Ġslow": 2368,
      "Ġsubmit": 2369,
      "Ġsimila": 2370,
      "ters": 2371,
      "terns": 2372,
      "Ġ//": 2373,
      "Ġbeauti": 2374,
      "any": 2375,
      "anel": 2376,
      "anges": 2377,
      "table": 2378,
      "ders": 2379,
      "Ġdepl": 2380,
      "Ġdesk": 2381,
      "eaders": 2382,
      "Ġreusable": 2383,
      "ens": 2384,
      "enis": 2385,
      "dit": 2386,
      "dicator": 2387,
      "tyle": 2388,
      "rney": 2389,
      "entage": 2390,
      "ompany": 2391,
      "Ġtradi": 2392,
      "Ġappe": 2393,
      "anding": 2394,
      "ĠCode": 2395,
      "ĠCalled": 2396,
      "ĠColor": 2397,
      "ĠCuber": 2398,
      "Linked": 2399,
      "eatured": 2400,
      "ghtly": 2401,
      "api": 2402,
      "appl": 2403,
      "ĠFull": 2404,
      "ĠForm": 2405,
      "ĠFolder": 2406,
      "ĠFiber": 2407,
      "ĠFutu": 2408,
      "ĠFeatured": 2409,
      "Ġlayout": 2410,
      "ĠLuxury": 2411,
      "ĠLayout": 2412,
      "ĠLusion": 2413,
      "ĠLenis": 2414,
      "Ġhave": 2415,
      "Ġheaders": 2416,
      "Ġwhi": 2417,
      "Ġwarm": 2418,
      "Ġwhen": 2419,
      "ieve": 2420,
      "Ġemail": 2421,
      "Ġedit": 2422,
      "ĠAi": 2423,
      "ĠAPI": 2424,
      "health": 2425,
      "Ġgrow": 2426,
      "ĠSha": 2427,
      "ĠStar": 2428,
      "ĠSoft": 2429,
      "ĠSEO": 2430,
      "ĠSubmit": 2431,
      "ĠSplit": 2432,
      "ĠSkil": 2433,
      "ĠStyle": 2434,
      "Reveal": 2435,
      "Refine": 2436,
      "ĠBold": 2437,
      "ĠBlack": 2438,
      "cessi": 2439,
      "celle": 2440,
      "opyright": 2441,
      "Ġwire": 2442,
      "ĠPale": 2443,
      "ĠPur": 2444,
      "ĠPerformance": 2445,
      "ĠPremium": 2446,
      "ĠParallax": 2447,
      "ĠPerc": 2448,
      "ĠPanel": 2449,
      "Ġbackend": 2450,
      "Ġ[\"": 2451,
      "ĠApple": 2452,
      "ĠTo": 2453,
      "ĠTop": 2454,
      "ĠThe": 2455,
      "ĠText": 2456,
      "ĠType": 2457,
      "ĠTypography": 2458,
      "ustom": 2459,
      "Ġcontinu": 2460,
      "Desig": 2461,
      "Cards": 2462,
      "Ġchanges": 2463,
      "Ġupward": 2464,
      "tead": 2465,
      "ĠLinks": 2466,
      "tical": 2467,
      "Ġzoom": 2468,
      "ĠGlass": 2469,
      "=\"#\">": 2470,
      "Ġ10000": 2471,
      "ales": 2472,
      "ĠUX": 2473,
      "('/": 2474,
      "documentElement": 2475,
      "ansitions": 2476,
      "payload": 2477,
      "Ġcomponents": 2478,
      "Ġshadows": 2479,
      "ursor": 2480,
      "amework": 2481,
      "Ġthis": 2482,
      "ĠReady": 2483,
      "Web": 2484,
      "Ġplaceholder": 2485,
      "Ġscales": 2486,
      "FastAPI": 2487,
      "ously": 2488,
      "hip": 2489,
      "ĠDetails": 2490,
      "ĠDemo": 2491,
      "styling": 2492,
      "chHeal": 2493,
      "chieve": 2494,
      "ĠbaseURL": 2495,
      "Ġanimation": 2496,
      "Ġexcelle": 2497,
      "ĠTransitions": 2498,
      "fully": 2499,
      "ask": 2500,
      "Firebase": 2501,
      "Ġtheme": 2502,
      "blet": 2503,
      "Platform": 2504,
      "ĠTech": 2505,
      "ĠAnimations": 2506,
      "ĠIcons": 2507,
      "ĠImage": 2508,
      "ĠIntrodu": 2509,
      "ĠScale": 2510,
      "ĠOut": 2511,
      "loat": 2512,
      "sky": 2513,
      "AnAi": 2514,
      "ĠMouse": 2515,
      "ĠMorphism": 2516,
      "ĠMic": 2517,
      "ĠMarquee": 2518,
      "Accessi": 2519,
      "Production": 2520,
      "List": 2521,
      "Live": 2522,
      "ThemeTog": 2523,
      "ĠIntegra": 2524,
      "ĠIndicator": 2525,
      "FlowPage": 2526,
      "Interns": 2527,
      "nCode": 2528,
      "Ġarchite": 2529,
      "Ġslightly": 2530,
      "nMagnetic": 2531,
      "Ġtablet": 2532,
      "Ġdisplay": 2533,
      "ĠMockup": 2534,
      "tterns": 2535,
      "classList": 2536,
      "Ġbottom": 2537,
      "Ġpayload": 2538,
      "Ġpadding": 2539,
      "Ġpatterns": 2540,
      "Ġmoves": 2541,
      "Ġsoftly": 2542,
      "ĠLoad": 2543,
      "ĠTimelines": 2544,
      "ication": 2545,
      "backgroundColor": 2546,
      "nLa": 2547,
      "ĠFlowPage": 2548,
      "ĠInteractions": 2549,
      "ĠInterfac": 2550,
      "TypeScript": 2551,
      "```": 2552,
      "forms": 2553,
      "ĠProjects": 2554,
      "ĠProfessional": 2555,
      "Ġcards": 2556,
      "ĠHeadlines": 2557,
      "Ġaway": 2558,
      "Ġawait": 2559,
      "ĠPlaceholder": 2560,
      "ĠPlatform": 2561,
      "Ġscrolls": 2562,
      "ProductivityPlatform": 2563,
      "Ġmovement": 2564,
      "Ġtransforms": 2565,
      "Ġshowcase": 2566,
      "useTheme": 2567,
      "Ġ5173": 2568,
      "Ġtimeout": 2569,
      "Ġopens": 2570,
      "Ġreveals": 2571,
      "ĠSlider": 2572,
      "ĠWhite": 2573,
      "\"}'": 2574,
      "468": 2575,
      "CalledPage": 2576,
      "Display": 2577,
      "During": 2578,
      "Editable": 2579,
      "Instead": 2580,
      "Journey": 2581,
      "REST": 2582,
      "Tilt": 2583,
      "Vertical": 2584,
      "bility": 2585,
      "framework": 2586,
      "lutter": 2587,
      "npm": 2588,
      "oyed": 2589,
      "ounters": 2590,
      "upabase": 2591,
      "ytelling": 2592,
      "ython": 2593,
      "Ġmessage": 2594,
      "Ġserver": 2595,
      "Ġusing": 2596,
      "Ġdown": 2597,
      "ĠElements": 2598,
      "ĠOptimization": 2599,
      "ongoDB": 2600,
      "Ġfollow": 2601,
      "ĠfetchHeal": 2602,
      "Ġfloats": 2603,
      "Ġclean": 2604,
      "Ġparticles": 2605,
      "Ġprompts": 2606,
      "Ġstorytelling": 2607,
      "Ġslowly": 2608,
      "ĠsubmitContact": 2609,
      "Ġsimilar": 2610,
      "Ġbeautifully": 2611,
      "Ġdeployed": 2612,
      "Ġdesktop": 2613,
      "Ġtraditional": 2614,
      "Ġappears": 2615,
      "ĠCuberto": 2616,
      "LinkedIn": 2617,
      "application": 2618,
      "ĠFuturistic": 2619,
      "Ġwhile": 2620,
      "Ġgrows": 2621,
      "ĠShadcn": 2622,
      "ĠStars": 2623,
      "ĠSplitting": 2624,
      "ĠSkills": 2625,
      "ĠPalette": 2626,
      "ĠPurple": 2627,
      "ĠPercentage": 2628,
      "ĠTheme": 2629,
      "ĠTypeScript": 2630,
      "Ġcontinuously": 2631,
      "Design": 2632,
      "Ġzooms": 2633,
      "chievements": 2634,
      "Ġexcellent": 2635,
      "ĠIntroduction": 2636,
      "AnAiProductivityPlatform": 2637,
      "ĠMicro": 2638,
      "Accessibility": 2639,
      "ThemeToggle": 2640,
      "ĠIntegration": 2641,
      "Internship": 2642,
      "Ġarchitecture": 2643,
      "ĠInterfaces": 2644,
      "ĠfetchHealth": 2645,
      "AnAiProductivityPlatformCalledPage": 2646,
      "'.": 2647,
      "..": 2648,
      "Case": 2649,
      "Stu": 2650,
      "SEO": 2651,
      "arou": 2652,
      "ake": 2653,
      "blo": 2654,
      "cted": 2655,
      "cafe": 2656,
      "hook": 2657,
      "if": 2658,
      "marquee": 2659,
      "ny": 2660,
      "ockup": 2661,
      "uti": 2662,
      "Ġnav": 2663,
      "Ġlow": 2664,
      "Ġall": 2665,
      "Ġour": 2666,
      "Ġlog": 2667,
      "tected": 2668,
      "Ġcom": 2669,
      "Ġcan": 2670,
      "Ġcome": 2671,
      "Ġcost": 2672,
      "rent": 2673,
      "reveal": 2674,
      "sel": 2675,
      "artistic": 2676,
      "Ġmake": 2677,
      "Ġmockup": 2678,
      "Ġso": 2679,
      "Ġbut": 2680,
      "Ġbike": 2681,
      "animated": 2682,
      "Ġdetected": 2683,
      "true": 2684,
      "Ġrent": 2685,
      "Ġrequire": 2686,
      "scroll": 2687,
      "ĠFor": 2688,
      "ĠSticky": 2689,
      "dyCard": 2690,
      "opny": 2691,
      "ĠDoc": 2692,
      "ĠDashboard": 2693,
      "usted": 2694,
      "Explic": 2695,
      "lift": 2696,
      "Ġui": 2697,
      "parent": 2698,
      "Ġanimated": 2699,
      "ĠTrusted": 2700,
      "Ġdashboard": 2701,
      "Ġcall": 2702,
      "Ġroaster": 2703,
      "minimal": 2704,
      "ĠBlog": 2705,
      "Ġsee": 2706,
      "nSEO": 2707,
      "Ġbouti": 2708,
      "ProjectGallery": 2709,
      "Ġtransparent": 2710,
      "Docs": 2711,
      ":\"#": 2712,
      "...\",": 2713,
      "CaseStu": 2714,
      "arousel": 2715,
      "bloom": 2716,
      "Ġnavbar": 2717,
      "Ġlogo": 2718,
      "Ġcomopny": 2719,
      "Ġcomes": 2720,
      "Ġbikes": 2721,
      "Ġrequirement": 2722,
      "Explicit": 2723,
      "Ġboutique": 2724,
      "CaseStudyCard": 2725,
      "\"]": 2726,
      "\"],": 2727,
      "%,": 2728,
      "65": 2729,
      "875": 2730,
      "98": 2731,
      "As": 2732,
      "Admin": 2733,
      "Achievements": 2734,
      "Class": 2735,
      "Cast": 2736,
      "Company": 2737,
      "Copyright": 2738,
      "Custom": 2739,
      "Cursor": 2740,
      "Counters": 2741,
      "Fie": 2742,
      "Floating": 2743,
      "Fade": 2744,
      "Float": 2745,
      "Flutter": 2746,
      "Im": 2747,
      "Line": 2748,
      "Left": 2749,
      "Landing": 2750,
      "Mo": 2751,
      "Mission": 2752,
      "Mask": 2753,
      "MongoDB": 2754,
      "Performance": 2755,
      "Premium": 2756,
      "Parallax": 2757,
      "Python": 2758,
      "Smooth": 2759,
      "Split": 2760,
      "Stagger": 2761,
      "Social": 2762,
      "Supabase": 2763,
      "Ts": 2764,
      "Table": 2765,
      "Warm": 2766,
      "ald": 2767,
      "bd": 2768,
      "builder": 2769,
      "called": 2770,
      "cale": 2771,
      "cbd": 2772,
      "df": 2773,
      "dMo": 2774,
      "emer": 2775,
      "fdf": 2776,
      "gs": 2777,
      "ll": 2778,
      "nHero": 2779,
      "nApp": 2780,
      "nAbout": 2781,
      "nsion": 2782,
      "nResponsive": 2783,
      "nWebsite": 2784,
      "nDark": 2785,
      "nYour": 2786,
      "nExperience": 2787,
      "nAPI": 2788,
      "nBlur": 2789,
      "nEvery": 2790,
      "nEmail": 2791,
      "nGlass": 2792,
      "nGlow": 2793,
      "nHooks": 2794,
      "nIcons": 2795,
      "nNo": 2796,
      "nRight": 2797,
      "nReveal": 2798,
      "nCards": 2799,
      "nWeb": 2800,
      "nFastAPI": 2801,
      "nFirebase": 2802,
      "nProduction": 2803,
      "nLive": 2804,
      "nTypeScript": 2805,
      "nDisplay": 2806,
      "nDuring": 2807,
      "nInstead": 2808,
      "nJourney": 2809,
      "nREST": 2810,
      "nTilt": 2811,
      "nVertical": 2812,
      "nLinkedIn": 2813,
      "nDesign": 2814,
      "nAccessibility": 2815,
      "nInternship": 2816,
      "olate": 2817,
      "run": 2818,
      "Ġ2": 2819,
      "Ġ4": 2820,
      "Ġac": 2821,
      "Ġ600": 2822,
      "ĠExplore": 2823,
      "Ġ700": 2824,
      "Ġ45": 2825,
      "ĠYour": 2826,
      "Ġalign": 2827,
      "Ġ720": 2828,
      "Ġ\\\"": 2829,
      "Ġrun": 2830,
      "tection": 2831,
      "test": 2832,
      "tension": 2833,
      "Ġfooter": 2834,
      "inimal": 2835,
      "Ġcenter": 2836,
      "Ġclamp": 2837,
      "Ġcarousel": 2838,
      "decor": 2839,
      "porting": 2840,
      "bottom": 2841,
      "Ġsol": 2842,
      "three": 2843,
      "anies": 2844,
      "Ġdev": 2845,
      "dion": 2846,
      "dius": 2847,
      "lds": 2848,
      "ripts": 2849,
      "allow": 2850,
      "Ġwrap": 2851,
      "Ġeffe": 2852,
      "ĠStagger": 2853,
      "ĠBeauti": 2854,
      "Proper": 2855,
      "Projects": 2856,
      "Professional": 2857,
      "HeroSli": 2858,
      "stall": 2859,
      "Ġinstall": 2860,
      "dules": 2861,
      "moduleDe": 2862,
      "docs": 2863,
      "Define": 2864,
      "Extension": 2865,
      "faq": 2866,
      "lide": 2867,
      "Ġcompanies": 2868,
      "125": 2869,
      "Ġletter": 2870,
      "dashboard": 2871,
      "timized": 2872,
      "radius": 2873,
      "platform": 2874,
      "mono": 2875,
      "isolate": 2876,
      "ĠScripts": 2877,
      "Ġlinear": 2878,
      "nSmooth": 2879,
      "nSplit": 2880,
      "nStagger": 2881,
      "nSocial": 2882,
      "nSupabase": 2883,
      "nScale": 2884,
      "nSlide": 2885,
      "nCast": 2886,
      "nCompany": 2887,
      "nCopyright": 2888,
      "nCustom": 2889,
      "nCursor": 2890,
      "nCounters": 2891,
      "Ġnone": 2892,
      "nMobile": 2893,
      "nMission": 2894,
      "nMask": 2895,
      "nMongoDB": 2896,
      "nMinimal": 2897,
      "nPerformance": 2898,
      "nPremium": 2899,
      "nParallax": 2900,
      "nPython": 2901,
      "bash": 2902,
      "Background": 2903,
      "Backend": 2904,
      "Scale": 2905,
      "nLine": 2906,
      "nLeft": 2907,
      "nLanding": 2908,
      "ĠInteractive": 2909,
      "ecfdf": 2910,
      "nFloating": 2911,
      "nFade": 2912,
      "nFloat": 2913,
      "nFlutter": 2914,
      "Minimal": 2915,
      "force": 2916,
      "nAI": 2917,
      "nAs": 2918,
      "nAdmin": 2919,
      "nAchievements": 2920,
      "ForAnAiProductivityPlatformCalledPage": 2921,
      "ForClass": 2922,
      "FAQPage": 2923,
      "Pinning": 2924,
      "nProper": 2925,
      "nProjects": 2926,
      "nProfessional": 2927,
      "nBackground": 2928,
      "nBackend": 2929,
      "useDefine": 2930,
      "Ġtimeline": 2931,
      "Ġoptimized": 2932,
      "ĠSlide": 2933,
      "nPinning": 2934,
      "BlogPage": 2935,
      "DocsPage": 2936,
      "DashboardPage": 2937,
      "ĠFAQPage": 2938,
      "Later": 2939,
      "Lazy": 2940,
      "Slide": 2941,
      "cordion": 2942,
      "product": 2943,
      "productivity": 2944,
      "nLater": 2945,
      "nLazy": 2946,
      "ĠForAnAiProductivityPlatformCalledPage": 2947,
      "ĠDocsPage": 2948,
      "ĠDashboardPage": 2949,
      "ĠBlogPage": 2950,
      "Fields": 2951,
      "Importing": 2952,
      "TsExtension": 2953,
      "dModules": 2954,
      "emerald": 2955,
      "gsap": 2956,
      "Ġaccordion": 2957,
      "decoration": 2958,
      "Ġsolid": 2959,
      "allowImporting": 2960,
      "Ġeffects": 2961,
      "ĠBeautiful": 2962,
      "HeroSlider": 2963,
      "moduleDetection": 2964,
      "isolatedModules": 2965,
      "ForClassFields": 2966,
      "useDefineForClassFields": 2967,
      "TsExtensions": 2968,
      "allowImportingTsExtensions": 2969,
      "\".": 2970,
      "775": 2971,
      "Carousel": 2972,
      "Framer": 2973,
      "Light": 2974,
      "Wid": 2975,
      "bike": 2976,
      "cal": 2977,
      "false": 2978,
      "nTailwind": 2979,
      "nRequirements": 2980,
      "pro": 2981,
      "soft": 2982,
      "you": 2983,
      "Ġif": 2984,
      "ono": 2985,
      "innova": 2986,
      "roaster": 2987,
      "Ġmono": 2988,
      "booking": 2989,
      "Ġlayou": 2990,
      "Ġemp": 2991,
      "ĠStic": 2992,
      "ĠBike": 2993,
      "ĠRequirements": 2994,
      "ĠDa": 2995,
      "moWid": 2996,
      "DemoWid": 2997,
      "hasiz": 2998,
      "PricingTable": 2999,
      "local": 3000,
      "nFramer": 3001,
      "ĠWarm": 3002,
      "\\\".": 3003,
      "\\\".\\": 3004,
      "ĠDocs": 3005,
      "Tablet": 3006,
      "project": 3007,
      "software": 3008,
      "innovative": 3009,
      "Ġlayouts": 3010,
      "Ġemphasiz": 3011,
      "DemoWidget": 3012,
      "Ġemphasized": 3013
    },
    "merges": [
      [
        "Ġ",
        "Ġ"
      ],
      [
        "t",
        "e"
      ],
      [
        "ĠĠ",
        "Ġ"
      ],
      [
        "Ġ",
        "<"
      ],
      [
        "o",
        "n"
      ],
      [
        "t",
        "i"
      ],
      [
        "ĠĠ",
        "ĠĠĠ"
      ],
      [
        "l",
        "a"
      ],
      [
        "o",
        "r"
      ],
      [
        "m",
        "e"
      ],
      [
        "Ġ",
        "\""
      ],
      [
        "=",
        "\""
      ],
      [
        "Ġ",
        "f"
      ],
      [
        "i",
        "n"
      ],
      [
        "Ġ",
        "c"
      ],
      [
        "d",
        "e"
      ],
      [
        "l",
        "e"
      ],
      [
        "r",
        "e"
      ],
      [
        "s",
        "s"
      ],
      [
        "r",
        "o"
      ],
      [
        "Ġ",
        "{"
      ],
      [
        "<",
        "|"
      ],
      [
        "|",
        ">"
      ],
      [
        "N",
        "a"
      ],
      [
        "a",
        "c"
      ],
      [
        "g",
        "e"
      ],
      [
        "la",
        "ss"
      ],
      [
        "\"",
        ">"
      ],
      [
        "Na",
        "me"
      ],
      [
        "lass",
        "Name"
      ],
      [
        "p",
        "or"
      ],
      [
        "ti",
        "on"
      ],
      [
        "x",
        "t"
      ],
      [
        "por",
        "t"
      ],
      [
        "Ġc",
        "lassName"
      ],
      [
        "n",
        "t"
      ],
      [
        "a",
        "ge"
      ],
      [
        "s",
        "e"
      ],
      [
        "Ġ",
        "p"
      ],
      [
        "Ġ<",
        "/"
      ],
      [
        "te",
        "xt"
      ],
      [
        "ĠĠ",
        "ĠĠĠĠĠ"
      ],
      [
        "ac",
        "t"
      ],
      [
        "a",
        "r"
      ],
      [
        "Ġ",
        "}"
      ],
      [
        "Ġ",
        "'"
      ],
      [
        "Ġ",
        "m"
      ],
      [
        "r",
        "i"
      ],
      [
        "c",
        "tion"
      ],
      [
        "on",
        "t"
      ],
      [
        "t",
        "o"
      ],
      [
        "b",
        "o"
      ],
      [
        "x",
        "l"
      ],
      [
        "t",
        "u"
      ],
      [
        "\"",
        ":"
      ],
      [
        "|>",
        "<|"
      ],
      [
        "\"",
        ","
      ],
      [
        "P",
        "age"
      ],
      [
        "i",
        "m"
      ],
      [
        "im",
        "port"
      ],
      [
        "Ġ",
        "s"
      ],
      [
        "Ġ",
        "text"
      ],
      [
        "o",
        "m"
      ],
      [
        "te",
        "r"
      ],
      [
        "Ġ",
        "/"
      ],
      [
        "Ġ/",
        ">"
      ],
      [
        "t",
        "h"
      ],
      [
        "ro",
        "m"
      ],
      [
        "Ġf",
        "rom"
      ],
      [
        "<",
        "/"
      ],
      [
        "i",
        "l"
      ],
      [
        "0",
        "0"
      ],
      [
        "Ġ",
        "b"
      ],
      [
        "u",
        "n"
      ],
      [
        "a",
        "n"
      ],
      [
        "t",
        "a"
      ],
      [
        "i",
        "te"
      ],
      [
        "de",
        "r"
      ],
      [
        "a",
        "u"
      ],
      [
        "in",
        "k"
      ],
      [
        "la",
        "te"
      ],
      [
        "s",
        "late"
      ],
      [
        "Ġ",
        "de"
      ],
      [
        "o",
        "u"
      ],
      [
        "t",
        "r"
      ],
      [
        "t",
        "le"
      ],
      [
        "ti",
        "tle"
      ],
      [
        "Ġ",
        "("
      ],
      [
        "Ġ",
        ")"
      ],
      [
        "a",
        "x"
      ],
      [
        "Ġm",
        "ax"
      ],
      [
        "e",
        "a"
      ],
      [
        "in",
        "g"
      ],
      [
        "(",
        ")"
      ],
      [
        ".",
        "/"
      ],
      [
        "Ġ",
        "re"
      ],
      [
        "e",
        "n"
      ],
      [
        "ont",
        "act"
      ],
      [
        "d",
        "i"
      ],
      [
        "t",
        "y"
      ],
      [
        "a",
        "th"
      ],
      [
        "se",
        "ction"
      ],
      [
        "s",
        "c"
      ],
      [
        "e",
        "x"
      ],
      [
        "ex",
        "port"
      ],
      [
        "r",
        "n"
      ],
      [
        "Ġf",
        "un"
      ],
      [
        "tu",
        "rn"
      ],
      [
        "Ġre",
        "turn"
      ],
      [
        "Ġfun",
        "ction"
      ],
      [
        "re",
        "act"
      ],
      [
        "e",
        "nt"
      ],
      [
        "R",
        "ou"
      ],
      [
        "ĠĠ",
        "ĠĠĠĠĠĠĠ"
      ],
      [
        "le",
        "x"
      ],
      [
        "om",
        "p"
      ],
      [
        "ac",
        "k"
      ],
      [
        "Ġp",
        "x"
      ],
      [
        "Ġp",
        "y"
      ],
      [
        "Ġf",
        "ont"
      ],
      [
        "h",
        "t"
      ],
      [
        "di",
        "v"
      ],
      [
        "o",
        "o"
      ],
      [
        "c",
        "omp"
      ],
      [
        "c",
        "on"
      ],
      [
        "Ġ",
        "to"
      ],
      [
        "on",
        "ent"
      ],
      [
        "Ġ",
        "tr"
      ],
      [
        "r",
        "c"
      ],
      [
        "f",
        "i"
      ],
      [
        "l",
        "d"
      ],
      [
        "bo",
        "ld"
      ],
      [
        "Ġ\"",
        "^"
      ],
      [
        "te",
        "nt"
      ],
      [
        "b",
        "e"
      ],
      [
        "onent",
        "s"
      ],
      [
        "comp",
        "onents"
      ],
      [
        "Na",
        "v"
      ],
      [
        "ri",
        "p"
      ],
      [
        "sc",
        "rip"
      ],
      [
        "a",
        "l"
      ],
      [
        "=",
        "{"
      ],
      [
        "Ġ",
        "H"
      ],
      [
        "Ġ",
        "a"
      ],
      [
        "n",
        "e"
      ],
      [
        "Ġ'",
        "./"
      ],
      [
        "p",
        "e"
      ],
      [
        "t",
        "s"
      ],
      [
        "o",
        "s"
      ],
      [
        "au",
        "to"
      ],
      [
        "m",
        "x"
      ],
      [
        "u",
        "t"
      ],
      [
        "Rou",
        "te"
      ],
      [
        "an",
        "d"
      ],
      [
        "Ġ",
        "="
      ],
      [
        "e",
        "os"
      ],
      [
        "p",
        "ath"
      ],
      [
        "con",
        "tent"
      ],
      [
        "fi",
        "le"
      ],
      [
        "age",
        "s"
      ],
      [
        "Ġ}",
        ","
      ],
      [
        "Ġ",
        "C"
      ],
      [
        "s",
        "rc"
      ],
      [
        "m",
        "t"
      ],
      [
        "oo",
        "ter"
      ],
      [
        "ty",
        "pe"
      ],
      [
        "L",
        "ink"
      ],
      [
        "ts",
        "x"
      ],
      [
        "o",
        "me"
      ],
      [
        "d",
        "om"
      ],
      [
        "bo",
        "ut"
      ],
      [
        "l",
        "ink"
      ],
      [
        "or",
        "der"
      ],
      [
        "tu",
        "re"
      ],
      [
        "ta",
        "il"
      ],
      [
        "ea",
        "ture"
      ],
      [
        "s",
        "ti"
      ],
      [
        "g",
        "ht"
      ],
      [
        "p",
        "s"
      ],
      [
        "a",
        "p"
      ],
      [
        "se",
        "r"
      ],
      [
        "Ġ",
        "F"
      ],
      [
        "n",
        "a"
      ],
      [
        "p",
        "ages"
      ],
      [
        "Ġ",
        "and"
      ],
      [
        "Ġde",
        "f"
      ],
      [
        "a",
        "te"
      ],
      [
        "e",
        "ro"
      ],
      [
        "6",
        "00"
      ],
      [
        "l",
        "t"
      ],
      [
        "au",
        "lt"
      ],
      [
        "Ġdef",
        "ault"
      ],
      [
        "v",
        "ite"
      ],
      [
        "ack",
        "ing"
      ],
      [
        "Ġtr",
        "acking"
      ],
      [
        "ri",
        "d"
      ],
      [
        "-",
        "-"
      ],
      [
        "Ġb",
        "g"
      ],
      [
        "e",
        "r"
      ],
      [
        "Ġ",
        "title"
      ],
      [
        "Ġ",
        "la"
      ],
      [
        "s",
        "m"
      ],
      [
        "=\"",
        "/"
      ],
      [
        "be",
        "l"
      ],
      [
        "Ġf",
        "lex"
      ],
      [
        "Ġb",
        "order"
      ],
      [
        "1",
        "6"
      ],
      [
        "me",
        "nt"
      ],
      [
        "ti",
        "ght"
      ],
      [
        "s",
        "t"
      ],
      [
        "or",
        "e"
      ],
      [
        "Ġ",
        "L"
      ],
      [
        "s",
        "Page"
      ],
      [
        "h",
        "ite"
      ],
      [
        "w",
        "hite"
      ],
      [
        "ri",
        "c"
      ],
      [
        "ome",
        "Page"
      ],
      [
        "Ġ",
        "h"
      ],
      [
        "u",
        "il"
      ],
      [
        "e",
        "ar"
      ],
      [
        "b",
        "ar"
      ],
      [
        "Nav",
        "bar"
      ],
      [
        "C",
        "ontact"
      ],
      [
        "w",
        "in"
      ],
      [
        "win",
        "d"
      ],
      [
        "Ġ",
        "w"
      ],
      [
        "i",
        "e"
      ],
      [
        "Ġ",
        "e"
      ],
      [
        "le",
        "ment"
      ],
      [
        "Ġ",
        "A"
      ],
      [
        "f",
        "lex"
      ],
      [
        "T",
        "A"
      ],
      [
        "Ġla",
        "bel"
      ],
      [
        "a",
        "in"
      ],
      [
        "G",
        "rid"
      ],
      [
        "eature",
        "Grid"
      ],
      [
        "c",
        "ss"
      ],
      [
        "m",
        "i"
      ],
      [
        "l",
        "u"
      ],
      [
        "scrip",
        "tion"
      ],
      [
        "Ġ\"",
        "/"
      ],
      [
        "o",
        "v"
      ],
      [
        "p",
        "p"
      ],
      [
        "ar",
        "d"
      ],
      [
        "h",
        "ea"
      ],
      [
        "Ġ",
        "g"
      ],
      [
        "ro",
        "u"
      ],
      [
        "rou",
        "ter"
      ],
      [
        "Ġ",
        "S"
      ],
      [
        "Ġa",
        "bout"
      ],
      [
        "l",
        "g"
      ],
      [
        "5",
        "0"
      ],
      [
        ".",
        "./"
      ],
      [
        "Ġ'",
        "../"
      ],
      [
        "o",
        "l"
      ],
      [
        "se",
        "mi"
      ],
      [
        "semi",
        "bold"
      ],
      [
        "1",
        "9"
      ],
      [
        "Ġ\"",
        "@"
      ],
      [
        "ro",
        "un"
      ],
      [
        "Ġp",
        "ath"
      ],
      [
        "Ġ/>",
        "}"
      ],
      [
        "={",
        "<"
      ],
      [
        "Ġe",
        "lement"
      ],
      [
        "â",
        "Ģ"
      ],
      [
        "Ġ",
        "âĢ"
      ],
      [
        "ĠâĢ",
        "Ķ"
      ],
      [
        "o",
        "de"
      ],
      [
        "tail",
        "s"
      ],
      [
        "Ġ",
        "ne"
      ],
      [
        "Ġne",
        "xt"
      ],
      [
        "Ġde",
        "tails"
      ],
      [
        "te",
        "ps"
      ],
      [
        "Ġm",
        "ore"
      ],
      [
        "Ġs",
        "teps"
      ],
      [
        "ĠL",
        "ear"
      ],
      [
        "ĠLear",
        "n"
      ],
      [
        "re",
        "ate"
      ],
      [
        "R",
        "e"
      ],
      [
        "Nav",
        "Link"
      ],
      [
        "ĠĠ",
        "ĠĠĠĠĠĠĠĠĠ"
      ],
      [
        "Ġde",
        "scription"
      ],
      [
        "u",
        "l"
      ],
      [
        "d",
        "y"
      ],
      [
        "m",
        "ain"
      ],
      [
        "ĠH",
        "ero"
      ],
      [
        "Ġ",
        "B"
      ],
      [
        "m",
        "l"
      ],
      [
        "ht",
        "ml"
      ],
      [
        "n",
        "c"
      ],
      [
        "d",
        "o"
      ],
      [
        "c",
        "ontact"
      ],
      [
        "Ġs",
        "tr"
      ],
      [
        "Ġstr",
        "ing"
      ],
      [
        "tail",
        "wind"
      ],
      [
        "tailwind",
        "css"
      ],
      [
        "u",
        "b"
      ],
      [
        "f",
        "y"
      ],
      [
        "j",
        "u"
      ],
      [
        "sti",
        "fy"
      ],
      [
        "ju",
        "stify"
      ],
      [
        "ub",
        "title"
      ],
      [
        "Route",
        "s"
      ],
      [
        "Ġm",
        "in"
      ],
      [
        "c",
        "e"
      ],
      [
        "P",
        "ro"
      ],
      [
        "ro",
        "w"
      ],
      [
        "Ġ",
        "#"
      ],
      [
        "Ġf",
        "or"
      ],
      [
        "H",
        "ero"
      ],
      [
        "Ġ",
        "--"
      ],
      [
        "Ġ",
        "justify"
      ],
      [
        "de",
        "v"
      ],
      [
        "scrip",
        "t"
      ],
      [
        "B",
        "uil"
      ],
      [
        "bo",
        "dy"
      ],
      [
        "s",
        "ta"
      ],
      [
        "Ġ",
        "v"
      ],
      [
        "Rou",
        "ter"
      ],
      [
        "te",
        "al"
      ],
      [
        "ser",
        "Router"
      ],
      [
        "row",
        "serRouter"
      ],
      [
        "i",
        "d"
      ],
      [
        "o",
        "t"
      ],
      [
        "ro",
        "ot"
      ],
      [
        "Pro",
        "ps"
      ],
      [
        "ric",
        "t"
      ],
      [
        "M",
        "ode"
      ],
      [
        "t",
        "rict"
      ],
      [
        "trict",
        "Mode"
      ],
      [
        "m",
        "s"
      ],
      [
        "v",
        "ie"
      ],
      [
        "vie",
        "w"
      ],
      [
        "na",
        "me"
      ],
      [
        "Ġv",
        "ar"
      ],
      [
        "de",
        "d"
      ],
      [
        "roun",
        "ded"
      ],
      [
        "C",
        "TA"
      ],
      [
        "F",
        "eatureGrid"
      ],
      [
        "i",
        "ty"
      ],
      [
        "en",
        "ter"
      ],
      [
        "c",
        "enter"
      ],
      [
        "H",
        "omePage"
      ],
      [
        "}",
        "</"
      ],
      [
        "\">",
        "{"
      ],
      [
        "o",
        "p"
      ],
      [
        "ov",
        "er"
      ],
      [
        "Ġw",
        "i"
      ],
      [
        "Ġwi",
        "th"
      ],
      [
        "i",
        "t"
      ],
      [
        "F",
        "ooter"
      ],
      [
        "'",
        ","
      ],
      [
        "ĠC",
        "ard"
      ],
      [
        "Ġh",
        "over"
      ],
      [
        "Ġc",
        "ta"
      ],
      [
        "Ġs",
        "ubtitle"
      ],
      [
        "Contact",
        "Page"
      ],
      [
        "w",
        "e"
      ],
      [
        "c",
        "ol"
      ],
      [
        "t",
        "we"
      ],
      [
        "be",
        "twe"
      ],
      [
        "betwe",
        "en"
      ],
      [
        "ĠC",
        "ontact"
      ],
      [
        "o",
        "der"
      ],
      [
        "oder",
        "n"
      ],
      [
        "Ġ",
        "P"
      ],
      [
        "A",
        "pp"
      ],
      [
        "s",
        "i"
      ],
      [
        "ss",
        "i"
      ],
      [
        "Buil",
        "t"
      ],
      [
        "u",
        "ser"
      ],
      [
        "na",
        "v"
      ],
      [
        "a",
        "ssi"
      ],
      [
        "bo",
        "s"
      ],
      [
        "sta",
        "nt"
      ],
      [
        "assi",
        "stant"
      ],
      [
        "link",
        "s"
      ],
      [
        "hea",
        "der"
      ],
      [
        "ĠH",
        "omePage"
      ],
      [
        "f",
        "ooter"
      ],
      [
        "ĠF",
        "ooter"
      ],
      [
        "Ġ",
        "Navbar"
      ],
      [
        "b",
        "g"
      ],
      [
        "Ġ",
        "Re"
      ],
      [
        "n",
        "g"
      ],
      [
        "ĠContact",
        "Page"
      ],
      [
        "g",
        "in"
      ],
      [
        "ac",
        "ity"
      ],
      [
        "op",
        "acity"
      ],
      [
        "1",
        "00"
      ],
      [
        "=\"/",
        "\""
      ],
      [
        "Ġg",
        "ap"
      ],
      [
        "ge",
        "t"
      ],
      [
        "Ġ",
        "D"
      ],
      [
        "Ġb",
        "ack"
      ],
      [
        "re",
        "f"
      ],
      [
        "Ġ",
        "in"
      ],
      [
        "m",
        "o"
      ],
      [
        "2",
        "00"
      ],
      [
        "M",
        "en"
      ],
      [
        "Men",
        "u"
      ],
      [
        "?",
        ":"
      ],
      [
        "ou",
        "se"
      ],
      [
        "ie",
        "s"
      ],
      [
        "de",
        "nc"
      ],
      [
        "uil",
        "d"
      ],
      [
        ")",
        ";"
      ],
      [
        "p",
        "en"
      ],
      [
        "denc",
        "ies"
      ],
      [
        "pen",
        "dencies"
      ],
      [
        "(",
        "--"
      ],
      [
        "d",
        "u"
      ],
      [
        "e",
        "d"
      ],
      [
        "ne",
        "ss"
      ],
      [
        "Ġ",
        "["
      ],
      [
        "du",
        "le"
      ],
      [
        "e",
        "an"
      ],
      [
        "mo",
        "dule"
      ],
      [
        "m",
        "ap"
      ],
      [
        "ĠA",
        "pp"
      ],
      [
        "ĠC",
        "TA"
      ],
      [
        "in",
        "de"
      ],
      [
        "inde",
        "x"
      ],
      [
        "ĠRe",
        "act"
      ],
      [
        "al",
        "le"
      ],
      [
        "it",
        "ness"
      ],
      [
        "me",
        "ta"
      ],
      [
        "R",
        "oo"
      ],
      [
        "reate",
        "Roo"
      ],
      [
        "reateRoo",
        "t"
      ],
      [
        "w",
        "id"
      ],
      [
        "wid",
        "th"
      ],
      [
        "s",
        "ite"
      ],
      [
        "do",
        "c"
      ],
      [
        "k",
        "e"
      ],
      [
        "hea",
        "d"
      ],
      [
        "a",
        "il"
      ],
      [
        "Ġ=",
        ">"
      ],
      [
        "Ġm",
        "odern"
      ],
      [
        "S",
        "trictMode"
      ],
      [
        "re",
        "view"
      ],
      [
        "\">",
        "</"
      ],
      [
        "type",
        "s"
      ],
      [
        "me",
        "r"
      ],
      [
        "ĠF",
        "eatureGrid"
      ],
      [
        "B",
        "rowserRouter"
      ],
      [
        "(",
        "("
      ],
      [
        ")",
        "}"
      ],
      [
        "Ġ",
        "ke"
      ],
      [
        "Ġ)",
        ")}"
      ],
      [
        "Ġke",
        "y"
      ],
      [
        "ĠH",
        "ouse"
      ],
      [
        "Ġh",
        "ref"
      ],
      [
        "alle",
        "d"
      ],
      [
        "Ġc",
        "alled"
      ],
      [
        "Ġ",
        "T"
      ],
      [
        "u",
        "s"
      ],
      [
        "re",
        "a"
      ],
      [
        "C",
        "reate"
      ],
      [
        "an",
        "der"
      ],
      [
        "lu",
        "st"
      ],
      [
        "ander",
        "lust"
      ],
      [
        "us",
        "to"
      ],
      [
        "Ġc",
        "usto"
      ],
      [
        "mer",
        "s"
      ],
      [
        "Ġcusto",
        "mers"
      ],
      [
        "Ġs",
        "m"
      ],
      [
        "p",
        "ri"
      ],
      [
        "me",
        "n"
      ],
      [
        "eature",
        "s"
      ],
      [
        "e",
        "g"
      ],
      [
        "ov",
        "a"
      ],
      [
        "tu",
        "di"
      ],
      [
        "ul",
        "se"
      ],
      [
        "tudi",
        "o"
      ],
      [
        "W",
        "anderlust"
      ],
      [
        "ail",
        "wind"
      ],
      [
        "re",
        "n"
      ],
      [
        "con",
        "st"
      ],
      [
        "tion",
        "s"
      ],
      [
        "Ġc",
        "on"
      ],
      [
        "j",
        "s"
      ],
      [
        "D",
        "e"
      ],
      [
        "v",
        "h"
      ],
      [
        "C",
        "ard"
      ],
      [
        "N",
        "ova"
      ],
      [
        "ĠF",
        "itness"
      ],
      [
        "ĠS",
        "tudio"
      ],
      [
        "p",
        "l"
      ],
      [
        "ric",
        "ing"
      ],
      [
        "E",
        "x"
      ],
      [
        "y",
        "s"
      ],
      [
        "Ex",
        "pl"
      ],
      [
        "Expl",
        "ore"
      ],
      [
        "f",
        "a"
      ],
      [
        "re",
        "en"
      ],
      [
        ".",
        "\""
      ],
      [
        "in",
        "e"
      ],
      [
        "ite",
        "ms"
      ],
      [
        ".",
        "'"
      ],
      [
        "v",
        "er"
      ],
      [
        "A",
        "bout"
      ],
      [
        "Ġ",
        "items"
      ],
      [
        "9",
        "50"
      ],
      [
        "Ġ",
        "name"
      ],
      [
        "Ġc",
        "h"
      ],
      [
        "l",
        "ine"
      ],
      [
        "Ġ",
        "rounded"
      ],
      [
        "(",
        "{"
      ],
      [
        "Ġ}",
        ":"
      ],
      [
        "Ġw",
        "e"
      ],
      [
        "a",
        "se"
      ],
      [
        "l",
        "i"
      ],
      [
        "Ġ<",
        ">"
      ],
      [
        "Ġ</",
        ">"
      ],
      [
        "8",
        "00"
      ],
      [
        "h",
        "a"
      ],
      [
        "do",
        "w"
      ],
      [
        "ha",
        "dow"
      ],
      [
        "ack",
        "ages"
      ],
      [
        "sti",
        "na"
      ],
      [
        "ser",
        "v"
      ],
      [
        "serv",
        "a"
      ],
      [
        "ĠB",
        "ean"
      ],
      [
        "b",
        "site"
      ],
      [
        "or",
        "k"
      ],
      [
        "ul",
        "l"
      ],
      [
        "t",
        "or"
      ],
      [
        "Ġ",
        "u"
      ],
      [
        "te",
        "a"
      ],
      [
        "c",
        "k"
      ],
      [
        "Ġ",
        "NavLink"
      ],
      [
        "Ġwe",
        "bsite"
      ],
      [
        "-",
        "["
      ],
      [
        "Ġ",
        "tea"
      ],
      [
        "Ġtea",
        "ms"
      ],
      [
        "ac",
        "ti"
      ],
      [
        "Ġc",
        "ontact"
      ],
      [
        "r",
        "acti"
      ],
      [
        "t",
        "tor"
      ],
      [
        "lass",
        "e"
      ],
      [
        "sti",
        "ng"
      ],
      [
        "ain",
        "er"
      ],
      [
        "racti",
        "ce"
      ],
      [
        "ttor",
        "ne"
      ],
      [
        "d",
        "ar"
      ],
      [
        "ĠĠ",
        "ĠĠĠĠĠĠĠĠĠĠĠ"
      ],
      [
        "9",
        "00"
      ],
      [
        "Ġ",
        "Wanderlust"
      ],
      [
        "v",
        "e"
      ],
      [
        "nc",
        "y"
      ],
      [
        "Ġ",
        "Link"
      ],
      [
        "ti",
        "c"
      ],
      [
        "Ġ",
        "z"
      ],
      [
        "ck",
        "y"
      ],
      [
        "Ġto",
        "p"
      ],
      [
        "r",
        "ap"
      ],
      [
        "tion",
        "sPage"
      ],
      [
        "Menu",
        "Page"
      ],
      [
        "H",
        "ome"
      ],
      [
        "b",
        "order"
      ],
      [
        "ar",
        "tic"
      ],
      [
        "artic",
        "le"
      ],
      [
        "w",
        "rap"
      ],
      [
        "ĠHero",
        "Props"
      ],
      [
        "ĠCard",
        "Props"
      ],
      [
        "ĠT",
        "ailwind"
      ],
      [
        "Ġ",
        "G"
      ],
      [
        "Ġ",
        "links"
      ],
      [
        "la",
        "bel"
      ],
      [
        ">",
        "Â"
      ],
      [
        "F",
        "ull"
      ],
      [
        "Y",
        "ear"
      ],
      [
        "()",
        "."
      ],
      [
        "()",
        "}"
      ],
      [
        "ne",
        "w"
      ],
      [
        "get",
        "Full"
      ],
      [
        "ĠD",
        "ate"
      ],
      [
        ">Â",
        "©"
      ],
      [
        "getFull",
        "Year"
      ],
      [
        "sti",
        "cky"
      ],
      [
        "dar",
        "k"
      ],
      [
        "Ġ",
        "Nova"
      ],
      [
        "ĠP",
        "ulse"
      ],
      [
        "t",
        "ar"
      ],
      [
        "R",
        "ea"
      ],
      [
        "Ġ",
        "dark"
      ],
      [
        "Ġin",
        "line"
      ],
      [
        "u",
        "e"
      ],
      [
        "b",
        "r"
      ],
      [
        "=\"",
        "#"
      ],
      [
        "de",
        "scription"
      ],
      [
        "Ġ",
        "+"
      ],
      [
        "Ġtr",
        "ue"
      ],
      [
        "Ġ\"/",
        "\","
      ],
      [
        "Ġ",
        "Route"
      ],
      [
        "Ġ",
        "Routes"
      ],
      [
        "8",
        "0"
      ],
      [
        "lu",
        "r"
      ],
      [
        "lu",
        "gin"
      ],
      [
        "c",
        "lassName"
      ],
      [
        "b",
        "lur"
      ],
      [
        "d",
        "ro"
      ],
      [
        "Ġback",
        "dro"
      ],
      [
        "Ġbackdro",
        "p"
      ],
      [
        "p",
        "lugin"
      ],
      [
        "vite",
        "js"
      ],
      [
        "type",
        "script"
      ],
      [
        "ĠA",
        "ge"
      ],
      [
        "a",
        "nt"
      ],
      [
        "Ġ",
        "vite"
      ],
      [
        "t",
        "on"
      ],
      [
        "ut",
        "ton"
      ],
      [
        "o",
        "f"
      ],
      [
        "h",
        "e"
      ],
      [
        "sc",
        "reen"
      ],
      [
        "Ġ",
        "0"
      ],
      [
        "men",
        "u"
      ],
      [
        "Ġ",
        "&"
      ],
      [
        "i",
        "ght"
      ],
      [
        "g",
        "roun"
      ],
      [
        "ar",
        "gin"
      ],
      [
        "groun",
        "d"
      ],
      [
        "ĠB",
        "rowserRouter"
      ],
      [
        "ol",
        "or"
      ],
      [
        "he",
        "ight"
      ],
      [
        "Ġc",
        "olor"
      ],
      [
        "Ġm",
        "argin"
      ],
      [
        "Ġb",
        "uild"
      ],
      [
        "Ġback",
        "ground"
      ],
      [
        "Ġ",
        "100"
      ],
      [
        "Ġ",
        "-"
      ],
      [
        "\"",
        ";"
      ],
      [
        "b",
        "uild"
      ],
      [
        "t",
        "sc"
      ],
      [
        "v",
        "ate"
      ],
      [
        "Ġ\"",
        "~"
      ],
      [
        "de",
        "pendencies"
      ],
      [
        "scrip",
        "ts"
      ],
      [
        "dev",
        "De"
      ],
      [
        "pri",
        "vate"
      ],
      [
        "Ġ&",
        "&"
      ],
      [
        "devDe",
        "pendencies"
      ],
      [
        "br",
        "and"
      ],
      [
        "Ġcon",
        "tent"
      ],
      [
        "a",
        "a"
      ],
      [
        "i",
        "ce"
      ],
      [
        "an",
        "s"
      ],
      [
        "Ġs",
        "tar"
      ],
      [
        "Ġ",
        "type"
      ],
      [
        "Ġc",
        "reateRoot"
      ],
      [
        "ĠS",
        "trictMode"
      ],
      [
        "u",
        "i"
      ],
      [
        "a",
        "le"
      ],
      [
        "Ġ",
        "U"
      ],
      [
        "te",
        "m"
      ],
      [
        "ĠU",
        "I"
      ],
      [
        "<",
        "!"
      ],
      [
        "m",
        "il"
      ],
      [
        "Ġ",
        "html"
      ],
      [
        "se",
        "ri"
      ],
      [
        "doc",
        "type"
      ],
      [
        "fa",
        "mil"
      ],
      [
        "seri",
        "f"
      ],
      [
        "famil",
        "y"
      ],
      [
        "sc",
        "ale"
      ],
      [
        "T",
        "F"
      ],
      [
        "U",
        "TF"
      ],
      [
        "i",
        "ti"
      ],
      [
        "se",
        "t"
      ],
      [
        "ar",
        "set"
      ],
      [
        "Ġla",
        "ng"
      ],
      [
        "dev",
        "ice"
      ],
      [
        "view",
        "port"
      ],
      [
        "Ġin",
        "iti"
      ],
      [
        "ys",
        "tem"
      ],
      [
        "Ġch",
        "arset"
      ],
      [
        "Ġiniti",
        "al"
      ],
      [
        "(",
        "'"
      ],
      [
        "E",
        "lement"
      ],
      [
        "u",
        "ment"
      ],
      [
        "doc",
        "ument"
      ],
      [
        "si",
        "on"
      ],
      [
        "'",
        ")"
      ],
      [
        ")",
        "."
      ],
      [
        "S",
        "eg"
      ],
      [
        "o",
        "e"
      ],
      [
        "Ġs",
        "ans"
      ],
      [
        "Ġs",
        "ystem"
      ],
      [
        "Seg",
        "oe"
      ],
      [
        "!",
        ")."
      ],
      [
        ">",
        ","
      ],
      [
        "B",
        "y"
      ],
      [
        "I",
        "d"
      ],
      [
        "c",
        "reateRoot"
      ],
      [
        "c",
        "li"
      ],
      [
        "p",
        "review"
      ],
      [
        "Ġ",
        "id"
      ],
      [
        "Ġp",
        "review"
      ],
      [
        "Ġs",
        "rc"
      ],
      [
        "get",
        "Element"
      ],
      [
        "ren",
        "der"
      ],
      [
        "ver",
        "sion"
      ],
      [
        "')",
        "!)."
      ],
      [
        "By",
        "Id"
      ],
      [
        "cli",
        "ent"
      ],
      [
        "getElement",
        "ById"
      ],
      [
        "ĠB",
        "utton"
      ],
      [
        "W",
        "ork"
      ],
      [
        "3",
        "00"
      ],
      [
        "b",
        "or"
      ],
      [
        "ar",
        "bor"
      ],
      [
        "i",
        "sting"
      ],
      [
        "r",
        "ainer"
      ],
      [
        "an",
        "si"
      ],
      [
        "Ġtr",
        "ansi"
      ],
      [
        "Ġtransi",
        "tion"
      ],
      [
        "ar",
        "y"
      ],
      [
        "7",
        "2"
      ],
      [
        "m",
        "ary"
      ],
      [
        "g",
        "rid"
      ],
      [
        "1",
        "72"
      ],
      [
        "p",
        "age"
      ],
      [
        "i",
        "ant"
      ],
      [
        "Ġvar",
        "iant"
      ],
      [
        "Ġp",
        "age"
      ],
      [
        "ĠL",
        "eg"
      ],
      [
        "ĠLeg",
        "al"
      ],
      [
        "ĠAge",
        "ncy"
      ],
      [
        "Ġg",
        "rid"
      ],
      [
        "col",
        "s"
      ],
      [
        "Ġs",
        "ty"
      ],
      [
        "te",
        "d"
      ],
      [
        "f",
        "eatures"
      ],
      [
        "d",
        "ren"
      ],
      [
        "p",
        "a"
      ],
      [
        "Ġc",
        "omp"
      ],
      [
        "il",
        "dren"
      ],
      [
        "stina",
        "tions"
      ],
      [
        "Ġcomp",
        "onent"
      ],
      [
        "pri",
        "mary"
      ],
      [
        "Ġs",
        "hadow"
      ],
      [
        "u",
        "r"
      ],
      [
        "a",
        "bout"
      ],
      [
        "fi",
        "t"
      ],
      [
        "serva",
        "tions"
      ],
      [
        "p",
        "y"
      ],
      [
        "9",
        "0"
      ],
      [
        "a",
        "me"
      ],
      [
        "Ġm",
        "ode"
      ],
      [
        "b",
        "it"
      ],
      [
        "q",
        "u"
      ],
      [
        "or",
        "ge"
      ],
      [
        "ame",
        "s"
      ],
      [
        "qu",
        "a"
      ],
      [
        "Ġcon",
        "st"
      ],
      [
        "e",
        "t"
      ],
      [
        "ĠA",
        "bout"
      ],
      [
        "O",
        "r"
      ],
      [
        "Ġstar",
        "ted"
      ],
      [
        "ric",
        "e"
      ],
      [
        "nt",
        "s"
      ],
      [
        "rea",
        "s"
      ],
      [
        "lasse",
        "s"
      ],
      [
        "ttorne",
        "ys"
      ],
      [
        "P",
        "ricing"
      ],
      [
        "1",
        "2"
      ],
      [
        "Ġf",
        "eatures"
      ],
      [
        "a",
        "st"
      ],
      [
        "7",
        "0"
      ],
      [
        "m",
        "d"
      ],
      [
        "d",
        "ing"
      ],
      [
        "About",
        "Page"
      ],
      [
        "f",
        "c"
      ],
      [
        "fa",
        "fc"
      ],
      [
        "ĠAbout",
        "Page"
      ],
      [
        "Ġ",
        "th"
      ],
      [
        "p",
        "pe"
      ],
      [
        "la",
        "x"
      ],
      [
        "e",
        "m"
      ],
      [
        "rc",
        "ase"
      ],
      [
        "ppe",
        "rcase"
      ],
      [
        "Ġ",
        "le"
      ],
      [
        "Ġu",
        "ppercase"
      ],
      [
        "a",
        "ding"
      ],
      [
        "ĠS",
        "aa"
      ],
      [
        "ĠSaa",
        "S"
      ],
      [
        "Ġ",
        "Rea"
      ],
      [
        "M",
        "ap"
      ],
      [
        "l",
        "ty"
      ],
      [
        "u",
        "men"
      ],
      [
        "re",
        "lax"
      ],
      [
        "ent",
        "al"
      ],
      [
        "ĠS",
        "pa"
      ],
      [
        "ĠD",
        "ental"
      ],
      [
        "ed",
        "ar"
      ],
      [
        "ĠG",
        "ames"
      ],
      [
        "Or",
        "bit"
      ],
      [
        "Ġle",
        "ading"
      ],
      [
        "ĠRea",
        "lty"
      ],
      [
        "Map",
        "le"
      ],
      [
        "relax",
        "ed"
      ],
      [
        ":",
        "-"
      ],
      [
        "s",
        "hadow"
      ],
      [
        "an",
        "slate"
      ],
      [
        "tr",
        "anslate"
      ],
      [
        "5",
        "00"
      ],
      [
        "W",
        "e"
      ],
      [
        "ve",
        "l"
      ],
      [
        "Ġp",
        "la"
      ],
      [
        "serva",
        "tionsPage"
      ],
      [
        "Work",
        "Page"
      ],
      [
        "d",
        "a"
      ],
      [
        "1",
        "0"
      ],
      [
        "eature",
        "sPage"
      ],
      [
        "ver",
        "y"
      ],
      [
        "c",
        "ta"
      ],
      [
        "s",
        "ubtitle"
      ],
      [
        "P",
        "ackages"
      ],
      [
        "Ġe",
        "very"
      ],
      [
        "stina",
        "tionsPage"
      ],
      [
        "c",
        "ome"
      ],
      [
        "l",
        "come"
      ],
      [
        "We",
        "lcome"
      ],
      [
        "a",
        "vel"
      ],
      [
        "A",
        "ge"
      ],
      [
        "A",
        "rea"
      ],
      [
        "L",
        "isting"
      ],
      [
        "P",
        "ractice"
      ],
      [
        "T",
        "rainer"
      ],
      [
        "y",
        "sPage"
      ],
      [
        "nt",
        "sPage"
      ],
      [
        "lasse",
        "sPage"
      ],
      [
        "ttorne",
        "ysPage"
      ],
      [
        "Area",
        "sPage"
      ],
      [
        ".",
        "</"
      ],
      [
        "B",
        "ean"
      ],
      [
        "f",
        "e"
      ],
      [
        "s",
        "p"
      ],
      [
        "Ġ",
        "of"
      ],
      [
        "Buil",
        "d"
      ],
      [
        "Ġ",
        "MenuPage"
      ],
      [
        "ĠP",
        "ricing"
      ],
      [
        "or",
        "m"
      ],
      [
        "on",
        "si"
      ],
      [
        "sp",
        "onsi"
      ],
      [
        "sponsi",
        "ve"
      ],
      [
        "M",
        "odern"
      ],
      [
        "--",
        "--"
      ],
      [
        "f",
        "orm"
      ],
      [
        "js",
        "on"
      ],
      [
        "Ġ",
        "on"
      ],
      [
        "Ġs",
        "c"
      ],
      [
        "O",
        "p"
      ],
      [
        "oo",
        "k"
      ],
      [
        "l",
        "ing"
      ],
      [
        "o",
        "in"
      ],
      [
        "p",
        "ack"
      ],
      [
        "|>",
        "@"
      ],
      [
        "|>",
        "{"
      ],
      [
        "pack",
        "age"
      ],
      [
        "r",
        "st"
      ],
      [
        "fi",
        "rst"
      ],
      [
        "ti",
        "mi"
      ],
      [
        "timi",
        "z"
      ],
      [
        "Op",
        "timiz"
      ],
      [
        ".",
        "\","
      ],
      [
        "b",
        "ase"
      ],
      [
        "an",
        "ce"
      ],
      [
        "er",
        "form"
      ],
      [
        "Re",
        "sponsive"
      ],
      [
        "ook",
        "s"
      ],
      [
        "Optimiz",
        "ed"
      ],
      [
        "erform",
        "ance"
      ],
      [
        "T",
        "ailwind"
      ],
      [
        "2",
        "0"
      ],
      [
        "F",
        "ast"
      ],
      [
        "ou",
        "s"
      ],
      [
        "Ġsc",
        "reen"
      ],
      [
        "?",
        "</"
      ],
      [
        "J",
        "oin"
      ],
      [
        "L",
        "ooks"
      ],
      [
        "l",
        "ity"
      ],
      [
        "ti",
        "lity"
      ],
      [
        "Ġp",
        "erformance"
      ],
      [
        "Ġto",
        "da"
      ],
      [
        "Ġtr",
        "y"
      ],
      [
        "and",
        "s"
      ],
      [
        "ap",
        "py"
      ],
      [
        "Ġh",
        "appy"
      ],
      [
        "Ġg",
        "rea"
      ],
      [
        "Ġch",
        "ildren"
      ],
      [
        "Ġu",
        "tility"
      ],
      [
        "ĠG",
        "et"
      ],
      [
        "Rea",
        "dy"
      ],
      [
        "Ġsty",
        "ling"
      ],
      [
        "Ġth",
        "ous"
      ],
      [
        "Ġtoda",
        "y"
      ],
      [
        "Ġgrea",
        "t"
      ],
      [
        "Ġthous",
        "ands"
      ],
      [
        "Ġp",
        "rice"
      ],
      [
        "Ġ'",
        "$"
      ],
      [
        "ĠH",
        "arbor"
      ],
      [
        "Ġ",
        "age"
      ],
      [
        "Ġ",
        "lu"
      ],
      [
        "P",
        "ulse"
      ],
      [
        "$",
        "{"
      ],
      [
        "`",
        "${"
      ],
      [
        "Ġ",
        "`${"
      ],
      [
        "le",
        "s"
      ],
      [
        "of",
        "fe"
      ],
      [
        "ĠButton",
        "Props"
      ],
      [
        "offe",
        "e"
      ],
      [
        "|>",
        "<!"
      ],
      [
        "h",
        "op"
      ],
      [
        "Ġc",
        "offee"
      ],
      [
        "x",
        "ur"
      ],
      [
        "xur",
        "y"
      ],
      [
        "im",
        "al"
      ],
      [
        "Ġmin",
        "imal"
      ],
      [
        "h",
        "i"
      ],
      [
        "Ġlu",
        "xury"
      ],
      [
        "f",
        "ul"
      ],
      [
        "y",
        "ful"
      ],
      [
        "or",
        "por"
      ],
      [
        "Ġc",
        "orpor"
      ],
      [
        "Ġpla",
        "yful"
      ],
      [
        "Ġcorpor",
        "ate"
      ],
      [
        "p",
        "hi"
      ],
      [
        "or",
        "phi"
      ],
      [
        "orphi",
        "sm"
      ],
      [
        "m",
        "orphism"
      ],
      [
        "lass",
        "morphism"
      ],
      [
        "Ġg",
        "lassmorphism"
      ],
      [
        "4",
        "00"
      ],
      [
        "li",
        "sting"
      ],
      [
        "ainer",
        "s"
      ],
      [
        "listing",
        "s"
      ],
      [
        "7",
        "00"
      ],
      [
        "Ġs",
        "hop"
      ],
      [
        "Ġ",
        "Orbit"
      ],
      [
        "Ġ",
        "Maple"
      ],
      [
        "ĠC",
        "edar"
      ],
      [
        "ĠF",
        "orge"
      ],
      [
        "ĠL",
        "umen"
      ],
      [
        "ĠA",
        "qua"
      ],
      [
        "ĠP",
        "ackages"
      ],
      [
        "n",
        "s"
      ],
      [
        "f",
        "ol"
      ],
      [
        "i",
        "o"
      ],
      [
        "fol",
        "io"
      ],
      [
        "aa",
        "s"
      ],
      [
        "De",
        "stinations"
      ],
      [
        "Ġage",
        "ncy"
      ],
      [
        "Ġtr",
        "avel"
      ],
      [
        "port",
        "folio"
      ],
      [
        "Ġ",
        "menu"
      ],
      [
        "os",
        "t"
      ],
      [
        "Re",
        "servationsPage"
      ],
      [
        "h",
        "ost"
      ],
      [
        "ĠD",
        "e"
      ],
      [
        "Ġ",
        "portfolio"
      ],
      [
        "F",
        "eaturesPage"
      ],
      [
        "Pricing",
        "Page"
      ],
      [
        "De",
        "stinationsPage"
      ],
      [
        "Packages",
        "Page"
      ],
      [
        "A",
        "ttorneysPage"
      ],
      [
        "C",
        "lassesPage"
      ],
      [
        "Age",
        "ntsPage"
      ],
      [
        "Listing",
        "sPage"
      ],
      [
        "Practice",
        "AreasPage"
      ],
      [
        "Trainer",
        "sPage"
      ],
      [
        "ĠL",
        "isting"
      ],
      [
        "ĠA",
        "reas"
      ],
      [
        "ĠP",
        "ractice"
      ],
      [
        "ĠT",
        "rainer"
      ],
      [
        "H",
        "arbor"
      ],
      [
        "s",
        "ty"
      ],
      [
        "Re",
        "servations"
      ],
      [
        "Ġ'",
        "/"
      ],
      [
        "ĠRe",
        "servationsPage"
      ],
      [
        "Ġ",
        "WorkPage"
      ],
      [
        "F",
        "eatures"
      ],
      [
        "Ġre",
        "al"
      ],
      [
        "ĠF",
        "eaturesPage"
      ],
      [
        "ĠPricing",
        "Page"
      ],
      [
        "ĠPackages",
        "Page"
      ],
      [
        "ĠDe",
        "stinationsPage"
      ],
      [
        "A",
        "ttorneys"
      ],
      [
        "C",
        "lasses"
      ],
      [
        "tu",
        "p"
      ],
      [
        "Ġs",
        "aas"
      ],
      [
        "ĠC",
        "lassesPage"
      ],
      [
        "ĠA",
        "ttorneysPage"
      ],
      [
        "ĠAge",
        "ntsPage"
      ],
      [
        "Ġstar",
        "tup"
      ],
      [
        "Age",
        "nts"
      ],
      [
        "Listing",
        "s"
      ],
      [
        "Trainer",
        "s"
      ],
      [
        "ĠListing",
        "sPage"
      ],
      [
        "ĠPractice",
        "AreasPage"
      ],
      [
        "ĠTrainer",
        "sPage"
      ],
      [
        "i",
        "r"
      ],
      [
        "y",
        "m"
      ],
      [
        "Ġf",
        "itness"
      ],
      [
        "Ġf",
        "ir"
      ],
      [
        "Ġre",
        "sta"
      ],
      [
        "Ġla",
        "w"
      ],
      [
        "Ġe",
        "sta"
      ],
      [
        "Ġg",
        "ym"
      ],
      [
        "ur",
        "ant"
      ],
      [
        "Ġfir",
        "m"
      ],
      [
        "Ġresta",
        "urant"
      ],
      [
        "Ġesta",
        "te"
      ],
      [
        "N",
        "ode"
      ],
      [
        "in",
        "line"
      ],
      [
        "Ġ",
        "]"
      ],
      [
        "c",
        "h"
      ],
      [
        "Ġ",
        ":"
      ],
      [
        "Re",
        "act"
      ],
      [
        "Ġ",
        "?"
      ],
      [
        "Ġ",
        "|"
      ],
      [
        "g",
        "host"
      ],
      [
        "Ġb",
        "ase"
      ],
      [
        "A",
        "qua"
      ],
      [
        "C",
        "edar"
      ],
      [
        "F",
        "orge"
      ],
      [
        "L",
        "umen"
      ],
      [
        "#",
        "'"
      ],
      [
        "=",
        "="
      ],
      [
        "h",
        "ref"
      ],
      [
        "}",
        ">"
      ],
      [
        "Ġ'",
        "#'"
      ],
      [
        "Ġ=",
        "=="
      ],
      [
        "Ġsty",
        "les"
      ],
      [
        "sty",
        "les"
      ],
      [
        "ch",
        "ildren"
      ],
      [
        "React",
        "Node"
      ],
      [
        "r",
        "avel"
      ],
      [
        "w",
        "ork"
      ],
      [
        "re",
        "servations"
      ],
      [
        "ĠH",
        "ome"
      ],
      [
        "----",
        "----"
      ],
      [
        "p",
        "ricing"
      ],
      [
        "p",
        "ackages"
      ],
      [
        "de",
        "stinations"
      ],
      [
        "a",
        "reas"
      ],
      [
        "a",
        "ttorneys"
      ],
      [
        "c",
        "lasses"
      ],
      [
        "p",
        "ractice"
      ],
      [
        "age",
        "nts"
      ],
      [
        "tr",
        "ainers"
      ],
      [
        "u",
        "m"
      ],
      [
        "4",
        "8"
      ],
      [
        "9",
        "48"
      ],
      [
        "948",
        "8"
      ],
      [
        "im",
        "a"
      ],
      [
        "r",
        "a"
      ],
      [
        "Ġ",
        "an"
      ],
      [
        "mi",
        "t"
      ],
      [
        "ima",
        "tions"
      ],
      [
        "ri",
        "en"
      ],
      [
        "pe",
        "rien"
      ],
      [
        "perien",
        "ce"
      ],
      [
        "l",
        "o"
      ],
      [
        "Ġ",
        "ex"
      ],
      [
        "oo",
        "th"
      ],
      [
        "Ġex",
        "perience"
      ],
      [
        "G",
        "et"
      ],
      [
        "ail",
        "s"
      ],
      [
        "um",
        "mit"
      ],
      [
        "p",
        "la"
      ],
      [
        "Ġpla",
        "ns"
      ],
      [
        "2",
        "9"
      ],
      [
        "9",
        "9"
      ],
      [
        "S",
        "tar"
      ],
      [
        "T",
        "ea"
      ],
      [
        "T",
        "ravel"
      ],
      [
        "p",
        "rice"
      ],
      [
        "Ġan",
        "imations"
      ],
      [
        "pla",
        "ns"
      ],
      [
        "Star",
        "ter"
      ],
      [
        "Tea",
        "m"
      ],
      [
        "Ġsm",
        "ooth"
      ],
      [
        "B",
        "utton"
      ],
      [
        "6",
        "9"
      ],
      [
        "c",
        "i"
      ],
      [
        "ĠT",
        "r"
      ],
      [
        "Ġp",
        "ricing"
      ],
      [
        "Ġp",
        "ackages"
      ],
      [
        "Ġ'",
        "@"
      ],
      [
        "Ġde",
        "stinations"
      ],
      [
        "Ġw",
        "ork"
      ],
      [
        "Ġ",
        "listings"
      ],
      [
        "Ġc",
        "lasses"
      ],
      [
        "Ġp",
        "ractice"
      ],
      [
        "Ġre",
        "servations"
      ],
      [
        "Ġtr",
        "ainers"
      ],
      [
        "Ġa",
        "reas"
      ],
      [
        "Ġa",
        "ttorneys"
      ],
      [
        "Ġage",
        "nts"
      ],
      [
        "0",
        "3"
      ],
      [
        "4",
        "5"
      ],
      [
        "be",
        "an"
      ],
      [
        "03",
        "69"
      ],
      [
        "0",
        "9"
      ],
      [
        "3",
        "09"
      ],
      [
        "a",
        "ed"
      ],
      [
        "g",
        "ap"
      ],
      [
        "12",
        "3"
      ],
      [
        "ĠTr",
        "ails"
      ],
      [
        "45",
        "309"
      ],
      [
        "h",
        "ouse"
      ],
      [
        "s",
        "h"
      ],
      [
        "al",
        "ty"
      ],
      [
        "Â",
        "·"
      ],
      [
        "Ġ",
        "Â·"
      ],
      [
        "e",
        "k"
      ],
      [
        "re",
        "sh"
      ],
      [
        "Ġwe",
        "ek"
      ],
      [
        "p",
        "x"
      ],
      [
        "Ġu",
        "se"
      ],
      [
        "C",
        "on"
      ],
      [
        "g",
        "ra"
      ],
      [
        "f",
        "ull"
      ],
      [
        "z",
        "y"
      ],
      [
        "di",
        "ent"
      ],
      [
        "gra",
        "dient"
      ],
      [
        "Ġm",
        "t"
      ],
      [
        "--------",
        "--------"
      ],
      [
        "o",
        "zy"
      ],
      [
        "i",
        "a"
      ],
      [
        "Ġv",
        "ia"
      ],
      [
        "n",
        "o"
      ],
      [
        "ĠS",
        "ummit"
      ],
      [
        "Ġ",
        "tailwindcss"
      ],
      [
        "fi",
        "g"
      ],
      [
        "Ġdef",
        "ine"
      ],
      [
        "Con",
        "fig"
      ],
      [
        "Ġdefine",
        "Config"
      ],
      [
        "c",
        "t"
      ],
      [
        "ra",
        "mer"
      ],
      [
        "l",
        "y"
      ],
      [
        "m",
        "ax"
      ],
      [
        "n",
        "ova"
      ],
      [
        "Ġ",
        ">"
      ],
      [
        "a",
        "qua"
      ],
      [
        "f",
        "orge"
      ],
      [
        "g",
        "al"
      ],
      [
        "g",
        "ames"
      ],
      [
        "h",
        "arbor"
      ],
      [
        "i",
        "os"
      ],
      [
        "p",
        "ulse"
      ],
      [
        "s",
        "tudio"
      ],
      [
        "s",
        "pa"
      ],
      [
        "s",
        "aas"
      ],
      [
        "w",
        "anderlust"
      ],
      [
        "or",
        "bit"
      ],
      [
        "de",
        "nt"
      ],
      [
        "le",
        "gal"
      ],
      [
        "re",
        "alty"
      ],
      [
        "age",
        "ncy"
      ],
      [
        "ax",
        "ios"
      ],
      [
        "lu",
        "men"
      ],
      [
        "ce",
        "dar"
      ],
      [
        "map",
        "le"
      ],
      [
        "fit",
        "ness"
      ],
      [
        "dent",
        "al"
      ],
      [
        "R",
        "o"
      ],
      [
        "a",
        "s"
      ],
      [
        "ac",
        "h"
      ],
      [
        "Ġre",
        "act"
      ],
      [
        "ci",
        "de"
      ],
      [
        "Ġ",
        "ro"
      ],
      [
        "Ġ",
        "da"
      ],
      [
        "n",
        "ing"
      ],
      [
        "re",
        "e"
      ],
      [
        "e",
        "s"
      ],
      [
        "f",
        "ramer"
      ],
      [
        "ĠCard",
        "s"
      ],
      [
        "mo",
        "tion"
      ],
      [
        "Ġ",
        "axios"
      ],
      [
        "Ġ",
        "no"
      ],
      [
        "Or",
        "der"
      ],
      [
        "Ġno",
        "w"
      ],
      [
        "Ġ",
        "Ro"
      ],
      [
        "F",
        "i"
      ],
      [
        "h",
        "over"
      ],
      [
        "Ġp",
        "b"
      ],
      [
        "Ġe",
        "ach"
      ],
      [
        "Ġc",
        "al"
      ],
      [
        "Ġro",
        "as"
      ],
      [
        "r",
        "y"
      ],
      [
        "alle",
        "ry"
      ],
      [
        "ĠT",
        "ravel"
      ],
      [
        "Ġ'/",
        "',"
      ],
      [
        "B",
        "a"
      ],
      [
        "C",
        "ozy"
      ],
      [
        "F",
        "resh"
      ],
      [
        "P",
        "ast"
      ],
      [
        "S",
        "ing"
      ],
      [
        "S",
        "pe"
      ],
      [
        "W",
        "i"
      ],
      [
        "i",
        "gin"
      ],
      [
        "k",
        "ed"
      ],
      [
        "p",
        "ac"
      ],
      [
        "w",
        "n"
      ],
      [
        "or",
        "ning"
      ],
      [
        "or",
        "igin"
      ],
      [
        "Ġf",
        "resh"
      ],
      [
        "Ġp",
        "ri"
      ],
      [
        "Ġm",
        "orning"
      ],
      [
        "ri",
        "es"
      ],
      [
        "Ġb",
        "ean"
      ],
      [
        "Ġg",
        "host"
      ],
      [
        "ĠS",
        "pac"
      ],
      [
        "Ġvariant",
        "s"
      ],
      [
        "Ġth",
        "ree"
      ],
      [
        "ci",
        "alty"
      ],
      [
        "Ġweek",
        "ly"
      ],
      [
        "Ġda",
        "wn"
      ],
      [
        "ĠRo",
        "ast"
      ],
      [
        "Ġcal",
        "m"
      ],
      [
        "Ġroas",
        "ted"
      ],
      [
        "Ba",
        "ked"
      ],
      [
        "Past",
        "ries"
      ],
      [
        "Sing",
        "le"
      ],
      [
        "Spe",
        "cialty"
      ],
      [
        "Ġpri",
        "mary"
      ],
      [
        "Ġmorning",
        "s"
      ],
      [
        "Ġbean",
        "s"
      ],
      [
        "ĠSpac",
        "e"
      ],
      [
        "Ġ",
        "typescript"
      ],
      [
        "Ġlu",
        "cide"
      ],
      [
        "Ġ]",
        ","
      ],
      [
        "m",
        "in"
      ],
      [
        "re",
        "m"
      ],
      [
        "S",
        "ummit"
      ],
      [
        "Ġp",
        "ro"
      ],
      [
        "pa",
        "d"
      ],
      [
        "de",
        "n"
      ],
      [
        "id",
        "den"
      ],
      [
        "lo",
        "ck"
      ],
      [
        "Ġ",
        "Menu"
      ],
      [
        "to",
        "p"
      ],
      [
        "Ġth",
        "e"
      ],
      [
        "lo",
        "w"
      ],
      [
        "ta",
        "te"
      ],
      [
        "e",
        "xt"
      ],
      [
        "ol",
        "der"
      ],
      [
        "ti",
        "ve"
      ],
      [
        "sty",
        "le"
      ],
      [
        "b",
        "le"
      ],
      [
        "h",
        "older"
      ],
      [
        "ce",
        "holder"
      ],
      [
        "m",
        "on"
      ],
      [
        "j",
        "e"
      ],
      [
        "ate",
        "d"
      ],
      [
        "i",
        "al"
      ],
      [
        "sti",
        "mon"
      ],
      [
        "ĠS",
        "hop"
      ],
      [
        "stimon",
        "ial"
      ],
      [
        "P",
        "la"
      ],
      [
        "ro",
        "l"
      ],
      [
        "f",
        "fe"
      ],
      [
        "ĠT",
        "e"
      ],
      [
        "E",
        "S"
      ],
      [
        "f",
        "ont"
      ],
      [
        "on",
        "e"
      ],
      [
        "E",
        "ffe"
      ],
      [
        "a",
        "ble"
      ],
      [
        "i",
        "s"
      ],
      [
        "ĠB",
        "lo"
      ],
      [
        "Effe",
        "ct"
      ],
      [
        "b",
        "ack"
      ],
      [
        "uil",
        "der"
      ],
      [
        "ĠA",
        "I"
      ],
      [
        "ĠT",
        "one"
      ],
      [
        "Pla",
        "ceholder"
      ],
      [
        "a",
        "fe"
      ],
      [
        "m",
        "p"
      ],
      [
        "ap",
        "top"
      ],
      [
        "ĠA",
        "n"
      ],
      [
        "----------------",
        "--"
      ],
      [
        "----------------",
        "------------------"
      ],
      [
        "la",
        "mp"
      ],
      [
        "je",
        "ct"
      ],
      [
        "ĠBlo",
        "om"
      ],
      [
        "G",
        "allery"
      ],
      [
        "S",
        "tate"
      ],
      [
        "o",
        "g"
      ],
      [
        "Ġuse",
        "Effect"
      ],
      [
        "Ġuse",
        "State"
      ],
      [
        "N",
        "ext"
      ],
      [
        "c",
        "lamp"
      ],
      [
        "i",
        "le"
      ],
      [
        "Ġ",
        "I"
      ],
      [
        "ĠS",
        "c"
      ],
      [
        "col",
        "or"
      ],
      [
        "T",
        "e"
      ],
      [
        "Ġ",
        "1"
      ],
      [
        "M",
        "e"
      ],
      [
        "b",
        "row"
      ],
      [
        "e",
        "brow"
      ],
      [
        "y",
        "ebrow"
      ],
      [
        "Ġ",
        "O"
      ],
      [
        "Ġ",
        "line"
      ],
      [
        "me",
        "di"
      ],
      [
        "stimonial",
        "s"
      ],
      [
        "medi",
        "um"
      ],
      [
        "ti",
        "cky"
      ],
      [
        "al",
        "l"
      ],
      [
        "rol",
        "l"
      ],
      [
        "m",
        "b"
      ],
      [
        "Ġ",
        "is"
      ],
      [
        "rom",
        "p"
      ],
      [
        "ĠRe",
        "servations"
      ],
      [
        "lo",
        "a"
      ],
      [
        "s",
        "k"
      ],
      [
        "Ġs",
        "h"
      ],
      [
        "A",
        "n"
      ],
      [
        "C",
        "all"
      ],
      [
        "S",
        "hop"
      ],
      [
        "]",
        "\""
      ],
      [
        "b",
        "lock"
      ],
      [
        "c",
        "ate"
      ],
      [
        "h",
        "idden"
      ],
      [
        "u",
        "tle"
      ],
      [
        "Ġ",
        "M"
      ],
      [
        "Ġ",
        "import"
      ],
      [
        "Ġ",
        "lg"
      ],
      [
        "Ġm",
        "b"
      ],
      [
        "Ġm",
        "d"
      ],
      [
        "Ġm",
        "x"
      ],
      [
        "im",
        "ated"
      ],
      [
        "Ġs",
        "ticky"
      ],
      [
        "Ġb",
        "lock"
      ],
      [
        "un",
        "cate"
      ],
      [
        "Ġtr",
        "uncate"
      ],
      [
        "Ġh",
        "idden"
      ],
      [
        "ĠReact",
        "Node"
      ],
      [
        "Ġuse",
        "Me"
      ],
      [
        "Ġuse",
        "Call"
      ],
      [
        "Ġpro",
        "ps"
      ],
      [
        "ĠO",
        "utle"
      ],
      [
        "ĠuseMe",
        "mo"
      ],
      [
        "ĠuseCall",
        "back"
      ],
      [
        "ĠOutle",
        "t"
      ],
      [
        "Ġc",
        "ozy"
      ],
      [
        "ĠC",
        "offee"
      ],
      [
        "Con",
        "tent"
      ],
      [
        "L",
        "aptop"
      ],
      [
        "T",
        "he"
      ],
      [
        "v",
        "ice"
      ],
      [
        "w",
        "w"
      ],
      [
        "Ġ",
        "Work"
      ],
      [
        "ĠF",
        "eatures"
      ],
      [
        "er",
        "vice"
      ],
      [
        "rea",
        "tive"
      ],
      [
        "ima",
        "tion"
      ],
      [
        "romp",
        "t"
      ],
      [
        ".",
        "\\"
      ],
      [
        "ĠC",
        "afe"
      ],
      [
        "sti",
        "c"
      ],
      [
        "Ġpro",
        "ject"
      ],
      [
        "2",
        "2"
      ],
      [
        "A",
        "c"
      ],
      [
        "D",
        "O"
      ],
      [
        "s",
        "hop"
      ],
      [
        "re",
        "mi"
      ],
      [
        "Ġb",
        "uilder"
      ],
      [
        "js",
        "x"
      ],
      [
        "20",
        "22"
      ],
      [
        "DO",
        "M"
      ],
      [
        "remi",
        "um"
      ],
      [
        "7",
        "5"
      ],
      [
        ":",
        "\\"
      ],
      [
        "se",
        "o"
      ],
      [
        "ea",
        "l"
      ],
      [
        "en",
        "er"
      ],
      [
        "ĠC",
        "lasses"
      ],
      [
        "ĠA",
        "ttorneys"
      ],
      [
        "ĠAge",
        "nts"
      ],
      [
        "We",
        "bsite"
      ],
      [
        "ĠDe",
        "stinations"
      ],
      [
        "ĠListing",
        "s"
      ],
      [
        "ĠTrainer",
        "s"
      ],
      [
        "ĠTe",
        "st"
      ],
      [
        "s",
        "o"
      ],
      [
        "s",
        "ummit"
      ],
      [
        "w",
        "ard"
      ],
      [
        "Ġb",
        "y"
      ],
      [
        "ou",
        "ld"
      ],
      [
        "tr",
        "ails"
      ],
      [
        "si",
        "g"
      ],
      [
        "ĠAn",
        "imation"
      ],
      [
        "Ġsh",
        "ould"
      ],
      [
        "b",
        "ile"
      ],
      [
        "Ġ",
        "se"
      ],
      [
        "Ġ",
        "section"
      ],
      [
        "Pro",
        "du"
      ],
      [
        "si",
        "z"
      ],
      [
        "2",
        "19"
      ],
      [
        "e",
        "yebrow"
      ],
      [
        "s",
        "ans"
      ],
      [
        "t",
        "folio"
      ],
      [
        "â",
        "Ĩ"
      ],
      [
        "ti",
        "ng"
      ],
      [
        "or",
        "tfolio"
      ],
      [
        "we",
        "bsite"
      ],
      [
        "li",
        "br"
      ],
      [
        "ĠSc",
        "roll"
      ],
      [
        "Ġis",
        "Ac"
      ],
      [
        "siz",
        "e"
      ],
      [
        "219",
        "3"
      ],
      [
        "âĨ",
        "ĵ"
      ],
      [
        "ĠisAc",
        "tive"
      ],
      [
        ":",
        "#"
      ],
      [
        ":",
        "."
      ],
      [
        "L",
        "i"
      ],
      [
        "m",
        "argin"
      ],
      [
        "v",
        "eal"
      ],
      [
        "Ġ",
        "Website"
      ],
      [
        "ou",
        "r"
      ],
      [
        "con",
        "s"
      ],
      [
        "ĠG",
        "allery"
      ],
      [
        "lo",
        "g"
      ],
      [
        "A",
        "P"
      ],
      [
        "i",
        "or"
      ],
      [
        "n",
        "ior"
      ],
      [
        "o",
        "c"
      ],
      [
        "q",
        "ui"
      ],
      [
        "de",
        "s"
      ],
      [
        "ar",
        "k"
      ],
      [
        "ar",
        "al"
      ],
      [
        "Ġde",
        "sig"
      ],
      [
        "----------------------------------",
        "\\"
      ],
      [
        "The",
        "me"
      ],
      [
        "Ġse",
        "nior"
      ],
      [
        "qui",
        "re"
      ],
      [
        "aral",
        "lax"
      ],
      [
        ">",
        "<"
      ],
      [
        "k",
        "p"
      ],
      [
        "rea",
        "kp"
      ],
      [
        "oin",
        "ts"
      ],
      [
        "Te",
        "stimonials"
      ],
      [
        "reakp",
        "oints"
      ],
      [
        "Ġ",
        "l"
      ],
      [
        "Ġ",
        "y"
      ],
      [
        "Ġp",
        "remium"
      ],
      [
        "oo",
        "d"
      ],
      [
        "Ġa",
        "s"
      ],
      [
        "ĠP",
        "ortfolio"
      ],
      [
        "ĠI",
        "n"
      ],
      [
        "G",
        "ener"
      ],
      [
        "n",
        "S"
      ],
      [
        "w",
        "a"
      ],
      [
        "}",
        ")"
      ],
      [
        "ta",
        "g"
      ],
      [
        "of",
        "t"
      ],
      [
        "Gener",
        "ated"
      ],
      [
        "F",
        "low"
      ],
      [
        "I",
        "n"
      ],
      [
        "c",
        "ti"
      ],
      [
        "e",
        "ction"
      ],
      [
        "m",
        "age"
      ],
      [
        "m",
        "odern"
      ],
      [
        "m",
        "ooth"
      ],
      [
        "n",
        "C"
      ],
      [
        "t",
        "form"
      ],
      [
        "u",
        "xury"
      ],
      [
        "v",
        "ity"
      ],
      [
        "Ġ",
        "n"
      ],
      [
        "Ġ",
        "ar"
      ],
      [
        "Ġ",
        "li"
      ],
      [
        "Ġs",
        "li"
      ],
      [
        "al",
        "se"
      ],
      [
        "ĠS",
        "ection"
      ],
      [
        "op",
        "ment"
      ],
      [
        "us",
        "able"
      ],
      [
        "vel",
        "opment"
      ],
      [
        "ĠDe",
        "velopment"
      ],
      [
        "loa",
        "ting"
      ],
      [
        "An",
        "imated"
      ],
      [
        "ervice",
        "s"
      ],
      [
        "cti",
        "vity"
      ],
      [
        "Ġli",
        "ke"
      ],
      [
        "#",
        "#"
      ],
      [
        ">",
        "</"
      ],
      [
        "]",
        ","
      ],
      [
        "c",
        "offee"
      ],
      [
        "f",
        "t"
      ],
      [
        "h",
        "y"
      ],
      [
        "p",
        "og"
      ],
      [
        "Ġ",
        "."
      ],
      [
        "ti",
        "stic"
      ],
      [
        "la",
        "y"
      ],
      [
        "Ġf",
        "alse"
      ],
      [
        "Ġc",
        "lass"
      ],
      [
        "Ġ}",
        ")"
      ],
      [
        "rap",
        "hy"
      ],
      [
        "sp",
        "lay"
      ],
      [
        "ci",
        "al"
      ],
      [
        "pog",
        "raphy"
      ],
      [
        ",",
        "#"
      ],
      [
        "g",
        "allery"
      ],
      [
        "n",
        "M"
      ],
      [
        "n",
        "P"
      ],
      [
        "n",
        "Laptop"
      ],
      [
        "Ġ",
        "ta"
      ],
      [
        "Ġ",
        "di"
      ],
      [
        "Ġ",
        "Next"
      ],
      [
        "me",
        "line"
      ],
      [
        "re",
        "sponsive"
      ],
      [
        "ge",
        "r"
      ],
      [
        "pe",
        "r"
      ],
      [
        "ĠA",
        "ww"
      ],
      [
        "Gallery",
        "Page"
      ],
      [
        "Ġ1",
        "5"
      ],
      [
        "ĠM",
        "o"
      ],
      [
        "ward",
        "s"
      ],
      [
        "ĠGallery",
        "Page"
      ],
      [
        "Ġl",
        "ook"
      ],
      [
        "ĠAww",
        "wards"
      ],
      [
        "C",
        "he"
      ],
      [
        "E",
        "mit"
      ],
      [
        "I",
        "ter"
      ],
      [
        "b",
        "a"
      ],
      [
        "b",
        "un"
      ],
      [
        "b",
        "log"
      ],
      [
        "b",
        "Che"
      ],
      [
        "c",
        "lu"
      ],
      [
        "d",
        "le"
      ],
      [
        "i",
        "p"
      ],
      [
        "i",
        "cons"
      ],
      [
        "r",
        "Op"
      ],
      [
        "t",
        "ter"
      ],
      [
        "Ġ",
        "body"
      ],
      [
        "in",
        "clu"
      ],
      [
        "Ġp",
        "lugin"
      ],
      [
        "bo",
        "ard"
      ],
      [
        "()",
        ","
      ],
      [
        "()",
        "],"
      ],
      [
        "comp",
        "ile"
      ],
      [
        "st",
        "rict"
      ],
      [
        "lu",
        "tion"
      ],
      [
        "lu",
        "cide"
      ],
      [
        "Re",
        "so"
      ],
      [
        "ĠB",
        "uilder"
      ],
      [
        "ĠP",
        "rompt"
      ],
      [
        "module",
        "Reso"
      ],
      [
        "li",
        "b"
      ],
      [
        "tar",
        "get"
      ],
      [
        "sh",
        "board"
      ],
      [
        "no",
        "Emit"
      ],
      [
        "ES",
        "Next"
      ],
      [
        "sk",
        "ip"
      ],
      [
        "Li",
        "bChe"
      ],
      [
        "Iter",
        "able"
      ],
      [
        "bun",
        "dle"
      ],
      [
        "rOp",
        "tions"
      ],
      [
        "inclu",
        "de"
      ],
      [
        "Ġplugin",
        "s"
      ],
      [
        "compile",
        "rOptions"
      ],
      [
        "moduleReso",
        "lution"
      ],
      [
        "skip",
        "LibChe"
      ],
      [
        "bundle",
        "r"
      ],
      [
        "skipLibChe",
        "ck"
      ],
      [
        "B",
        "ack"
      ],
      [
        "D",
        "ark"
      ],
      [
        "I",
        "mage"
      ],
      [
        "L",
        "uxury"
      ],
      [
        "S",
        "AP"
      ],
      [
        "T",
        "ext"
      ],
      [
        "a",
        "tor"
      ],
      [
        "c",
        "lass"
      ],
      [
        "c",
        "ture"
      ],
      [
        "i",
        "meline"
      ],
      [
        "o",
        "bile"
      ],
      [
        "p",
        "arallax"
      ],
      [
        "t",
        "ack"
      ],
      [
        "y",
        "pe"
      ],
      [
        "Ġ",
        "bo"
      ],
      [
        "Ġp",
        "a"
      ],
      [
        "Ġm",
        "ov"
      ],
      [
        "Ġs",
        "oft"
      ],
      [
        "ou",
        "t"
      ],
      [
        "ĠL",
        "o"
      ],
      [
        "ĠL",
        "aptop"
      ],
      [
        "Ġe",
        "yebrow"
      ],
      [
        "ĠS",
        "mooth"
      ],
      [
        "ĠS",
        "tack"
      ],
      [
        "Re",
        "usable"
      ],
      [
        "ssi",
        "on"
      ],
      [
        "ĠT",
        "imeline"
      ],
      [
        "ĠG",
        "SAP"
      ],
      [
        "Ġon",
        "e"
      ],
      [
        "Ġsc",
        "rol"
      ],
      [
        "Ġuse",
        "Theme"
      ],
      [
        "ĠShop",
        "Page"
      ],
      [
        "stimonial",
        "sPage"
      ],
      [
        "Shop",
        "Page"
      ],
      [
        "ervice",
        "sPage"
      ],
      [
        "oc",
        "al"
      ],
      [
        "Ġar",
        "tistic"
      ],
      [
        "Ġsli",
        "des"
      ],
      [
        "Ġscrol",
        "ling"
      ],
      [
        "7",
        "3"
      ],
      [
        "A",
        "Q"
      ],
      [
        "b",
        "reakpoints"
      ],
      [
        "e",
        "me"
      ],
      [
        "f",
        "ault"
      ],
      [
        "i",
        "c"
      ],
      [
        "m",
        "an"
      ],
      [
        "m",
        "ood"
      ],
      [
        "p",
        "late"
      ],
      [
        "p",
        "rompt"
      ],
      [
        "u",
        "p"
      ],
      [
        "}",
        "\","
      ],
      [
        "ĠĠ",
        "ĠĠĠĠĠĠĠĠĠĠĠĠĠ"
      ],
      [
        "te",
        "s"
      ],
      [
        "la",
        "nc"
      ],
      [
        "de",
        "ns"
      ],
      [
        "de",
        "fault"
      ],
      [
        "re",
        "quire"
      ],
      [
        "se",
        "man"
      ],
      [
        "ar",
        "m"
      ],
      [
        "ar",
        "ies"
      ],
      [
        "im",
        "age"
      ],
      [
        "th",
        "eme"
      ],
      [
        "an",
        "imations"
      ],
      [
        "Ġre",
        "sponsive"
      ],
      [
        "en",
        "able"
      ],
      [
        "ty",
        "pography"
      ],
      [
        "con",
        "fi"
      ],
      [
        "={",
        "({"
      ],
      [
        "Pro",
        "ject"
      ],
      [
        "we",
        "ight"
      ],
      [
        "mo",
        "bile"
      ],
      [
        "denc",
        "e"
      ],
      [
        "site",
        "map"
      ],
      [
        "us",
        "age"
      ],
      [
        "tem",
        "plate"
      ],
      [
        "ra",
        "w"
      ],
      [
        "no",
        "tes"
      ],
      [
        "pad",
        "ding"
      ],
      [
        "back",
        "ground"
      ],
      [
        "so",
        "cial"
      ],
      [
        "Produ",
        "ct"
      ],
      [
        "libr",
        "ary"
      ],
      [
        "libr",
        "aries"
      ],
      [
        "tag",
        "s"
      ],
      [
        "ba",
        "lanc"
      ],
      [
        "dens",
        "ity"
      ],
      [
        "require",
        "d"
      ],
      [
        "seman",
        "tic"
      ],
      [
        "enable",
        "d"
      ],
      [
        "confi",
        "dence"
      ],
      [
        "balanc",
        "ed"
      ],
      [
        "5",
        "69"
      ],
      [
        "A",
        "ct"
      ],
      [
        "C",
        "afe"
      ],
      [
        "E",
        "O"
      ],
      [
        "S",
        "c"
      ],
      [
        "U",
        "X"
      ],
      [
        "Y",
        "our"
      ],
      [
        "_",
        "_"
      ],
      [
        "a",
        "de"
      ],
      [
        "a",
        "tion"
      ],
      [
        "c",
        "ts"
      ],
      [
        "c",
        "tor"
      ],
      [
        "n",
        "L"
      ],
      [
        "o",
        "k"
      ],
      [
        "o",
        "per"
      ],
      [
        "q",
        "ue"
      ],
      [
        "s",
        "ub"
      ],
      [
        "u",
        "st"
      ],
      [
        "Ġ",
        "3"
      ],
      [
        "Ġ",
        "order"
      ],
      [
        "Ġ",
        "user"
      ],
      [
        "Ġ",
        "Modern"
      ],
      [
        "Ġ\"",
        "#"
      ],
      [
        "Ġc",
        "reative"
      ],
      [
        "re",
        "ctor"
      ],
      [
        "Ġm",
        "ust"
      ],
      [
        "Ġde",
        "vel"
      ],
      [
        "ne",
        "r"
      ],
      [
        "ĠF",
        "low"
      ],
      [
        "ment",
        "s"
      ],
      [
        "ear",
        "s"
      ],
      [
        "Ġw",
        "or"
      ],
      [
        "Ġg",
        "allery"
      ],
      [
        "fa",
        "de"
      ],
      [
        "Ġon",
        "line"
      ],
      [
        "Te",
        "ch"
      ],
      [
        "An",
        "imations"
      ],
      [
        "Ġdesig",
        "n"
      ],
      [
        "Ġdesig",
        "ner"
      ],
      [
        "Ġy",
        "ears"
      ],
      [
        "ĠIn",
        "ter"
      ],
      [
        "Ġta",
        "sk"
      ],
      [
        "Ġdi",
        "rector"
      ],
      [
        "ĠMo",
        "tion"
      ],
      [
        "sub",
        "tle"
      ],
      [
        "Ġorder",
        "ing"
      ],
      [
        "Ġdevel",
        "oper"
      ],
      [
        "1",
        "3"
      ],
      [
        "4",
        "75"
      ],
      [
        "S",
        "ervices"
      ],
      [
        "e",
        "c"
      ],
      [
        "g",
        "n"
      ],
      [
        "i",
        "ke"
      ],
      [
        "i",
        "gn"
      ],
      [
        "n",
        "F"
      ],
      [
        "n",
        "ding"
      ],
      [
        "v",
        "w"
      ],
      [
        "Ġ",
        "auto"
      ],
      [
        "in",
        "ear"
      ],
      [
        "de",
        "g"
      ],
      [
        "ac",
        "ing"
      ],
      [
        "Ġm",
        "ain"
      ],
      [
        "tr",
        "ans"
      ],
      [
        "al",
        "ign"
      ],
      [
        "Ġla",
        "nding"
      ],
      [
        "72",
        "0"
      ],
      [
        "sp",
        "acing"
      ],
      [
        "ĠTe",
        "stimonials"
      ],
      [
        "wa",
        "re"
      ],
      [
        "13",
        "5"
      ],
      [
        "475",
        "569"
      ],
      [
        "trans",
        "form"
      ],
      [
        "1",
        "1"
      ],
      [
        "3",
        "7"
      ],
      [
        "E",
        "ach"
      ],
      [
        "G",
        "it"
      ],
      [
        "H",
        "ub"
      ],
      [
        "H",
        "over"
      ],
      [
        "M",
        "in"
      ],
      [
        "S",
        "t"
      ],
      [
        "T",
        "ri"
      ],
      [
        "T",
        "ype"
      ],
      [
        "`",
        "`"
      ],
      [
        "a",
        "g"
      ],
      [
        "a",
        "des"
      ],
      [
        "a",
        "shboard"
      ],
      [
        "d",
        "line"
      ],
      [
        "e",
        "l"
      ],
      [
        "e",
        "er"
      ],
      [
        "f",
        "or"
      ],
      [
        "f",
        "in"
      ],
      [
        "g",
        "le"
      ],
      [
        "g",
        "ger"
      ],
      [
        "h",
        "ree"
      ],
      [
        "i",
        "stic"
      ],
      [
        "m",
        "ail"
      ],
      [
        "n",
        "A"
      ],
      [
        "n",
        "Animated"
      ],
      [
        "p",
        "i"
      ],
      [
        "p",
        "top"
      ],
      [
        "u",
        "cture"
      ],
      [
        "y",
        "nc"
      ],
      [
        "y",
        "loa"
      ],
      [
        "y",
        "out"
      ],
      [
        "Ġ",
        "en"
      ],
      [
        "Ġ",
        "Pro"
      ],
      [
        "Ġ",
        "Router"
      ],
      [
        "Ġ",
        "Optimized"
      ],
      [
        "Ġf",
        "ades"
      ],
      [
        "Ġc",
        "ard"
      ],
      [
        "ro",
        "du"
      ],
      [
        "ac",
        "tions"
      ],
      [
        "ar",
        "ge"
      ],
      [
        "ri",
        "ght"
      ],
      [
        "im",
        "ate"
      ],
      [
        "Ġs",
        "ite"
      ],
      [
        "Ġb",
        "reakpoints"
      ],
      [
        "tr",
        "ucture"
      ],
      [
        "ea",
        "dline"
      ],
      [
        "en",
        "d"
      ],
      [
        "omp",
        "onents"
      ],
      [
        "ack",
        "ground"
      ],
      [
        "be",
        "r"
      ],
      [
        "rip",
        "t"
      ],
      [
        "ĠH",
        "eadline"
      ],
      [
        "Ġa",
        "wa"
      ],
      [
        "Ġa",
        "pi"
      ],
      [
        "ne",
        "tic"
      ],
      [
        "and",
        "ard"
      ],
      [
        "ĠC",
        "reative"
      ],
      [
        "ĠC",
        "omponents"
      ],
      [
        "ĠF",
        "ramer"
      ],
      [
        "ĠF",
        "loating"
      ],
      [
        "Ġla",
        "ptop"
      ],
      [
        "ĠL",
        "og"
      ],
      [
        "ĠL",
        "ocal"
      ],
      [
        "ĠL",
        "arge"
      ],
      [
        "ĠS",
        "tructure"
      ],
      [
        "ĠB",
        "ackground"
      ],
      [
        "ub",
        "mit"
      ],
      [
        "ĠP",
        "la"
      ],
      [
        "ĠRe",
        "sponsive"
      ],
      [
        "ĠRe",
        "veal"
      ],
      [
        "gin",
        "eer"
      ],
      [
        "ĠD",
        "ark"
      ],
      [
        "Ġin",
        "to"
      ],
      [
        "ĠT",
        "hi"
      ],
      [
        "ĠT",
        "hree"
      ],
      [
        "pl",
        "it"
      ],
      [
        "Ex",
        "perience"
      ],
      [
        "acti",
        "ve"
      ],
      [
        "ĠG",
        "low"
      ],
      [
        "ĠG",
        "ener"
      ],
      [
        "ĠButton",
        "s"
      ],
      [
        "Ġsty",
        "le"
      ],
      [
        "Ġle",
        "ft"
      ],
      [
        "fe",
        "ssion"
      ],
      [
        "Ġsc",
        "roll"
      ],
      [
        "Ġreal",
        "istic"
      ],
      [
        "Ġan",
        "imate"
      ],
      [
        "Ro",
        "tate"
      ],
      [
        "Ġro",
        "tate"
      ],
      [
        "Ġda",
        "ta"
      ],
      [
        "je",
        "cts"
      ],
      [
        "ĠAn",
        "imated"
      ],
      [
        "ĠSc",
        "reen"
      ],
      [
        "Produ",
        "ctivity"
      ],
      [
        "ĠScroll",
        "Tri"
      ],
      [
        "AP",
        "I"
      ],
      [
        "Ġy",
        "our"
      ],
      [
        "Ġas",
        "ync"
      ],
      [
        "In",
        "fin"
      ],
      [
        "Ġn",
        "ot"
      ],
      [
        "Ġmov",
        "e"
      ],
      [
        "Ġsoft",
        "ware"
      ],
      [
        "ĠLo",
        "ading"
      ],
      [
        "Sc",
        "ript"
      ],
      [
        "Ġwor",
        "ld"
      ],
      [
        "Git",
        "Hub"
      ],
      [
        "St",
        "andard"
      ],
      [
        "ag",
        "netic"
      ],
      [
        "yloa",
        "d"
      ],
      [
        "Ġen",
        "gineer"
      ],
      [
        "ĠLog",
        "o"
      ],
      [
        "ĠThi",
        "s"
      ],
      [
        "ĠGener",
        "ator"
      ],
      [
        "fession",
        "al"
      ],
      [
        "Ġrotate",
        "s"
      ],
      [
        "ĠScrollTri",
        "gger"
      ],
      [
        "Infin",
        "ite"
      ],
      [
        "6",
        "6"
      ],
      [
        "7",
        "66"
      ],
      [
        "F",
        "or"
      ],
      [
        "c",
        "ozy"
      ],
      [
        "f",
        "f"
      ],
      [
        "f",
        "ood"
      ],
      [
        "l",
        "inear"
      ],
      [
        "o",
        "w"
      ],
      [
        "s",
        "ystem"
      ],
      [
        "u",
        "ppercase"
      ],
      [
        "le",
        "tter"
      ],
      [
        "ar",
        "que"
      ],
      [
        "di",
        "splay"
      ],
      [
        "Ġtr",
        "ans"
      ],
      [
        "be",
        "ver"
      ],
      [
        "ĠS",
        "ervices"
      ],
      [
        "ck",
        "up"
      ],
      [
        "fe",
        "ff"
      ],
      [
        "Ġsh",
        "ow"
      ],
      [
        "73",
        "1"
      ],
      [
        "Product",
        "Grid"
      ],
      [
        "ec",
        "feff"
      ],
      [
        "arque",
        "e"
      ],
      [
        "bever",
        "age"
      ],
      [
        ")",
        "\\"
      ],
      [
        "F",
        "AQ"
      ],
      [
        "M",
        "obile"
      ],
      [
        "P",
        "in"
      ],
      [
        "S",
        "S"
      ],
      [
        "S",
        "ervicesPage"
      ],
      [
        "c",
        "reative"
      ],
      [
        "e",
        "au"
      ],
      [
        "f",
        "ine"
      ],
      [
        "i",
        "re"
      ],
      [
        "n",
        "Pro"
      ],
      [
        "n",
        "Back"
      ],
      [
        "n",
        "Image"
      ],
      [
        "n",
        "Text"
      ],
      [
        "n",
        "Reusable"
      ],
      [
        "t",
        "to"
      ],
      [
        "t",
        "tr"
      ],
      [
        "u",
        "se"
      ],
      [
        "Ġ",
        "5"
      ],
      [
        "Ġ",
        "ti"
      ],
      [
        "Ġ",
        "op"
      ],
      [
        "Ġ",
        "it"
      ],
      [
        "te",
        "stimonials"
      ],
      [
        "in",
        "sp"
      ],
      [
        "Ġre",
        "veal"
      ],
      [
        "ĠH",
        "over"
      ],
      [
        "Ġa",
        "ward"
      ],
      [
        "Ġa",
        "ttr"
      ],
      [
        "ĠC",
        "SS"
      ],
      [
        "ĠF",
        "ade"
      ],
      [
        "win",
        "ning"
      ],
      [
        "lu",
        "xury"
      ],
      [
        "ĠS",
        "li"
      ],
      [
        "ĠS",
        "ervicesPage"
      ],
      [
        "du",
        "ctivity"
      ],
      [
        "serv",
        "ice"
      ],
      [
        "Ġpla",
        "tform"
      ],
      [
        "orm",
        "al"
      ],
      [
        "as",
        "ter"
      ],
      [
        "Ġpro",
        "ductivity"
      ],
      [
        "ĠTe",
        "stimonialsPage"
      ],
      [
        "ĠI",
        "t"
      ],
      [
        "Te",
        "stimonialsPage"
      ],
      [
        "quire",
        "ments"
      ],
      [
        "tag",
        "ger"
      ],
      [
        "Flow",
        "Min"
      ],
      [
        "Ġn",
        "ormal"
      ],
      [
        "nP",
        "in"
      ],
      [
        "ok",
        "ing"
      ],
      [
        "eau",
        "ti"
      ],
      [
        "ire",
        "d"
      ],
      [
        "tto",
        "m"
      ],
      [
        "insp",
        "ired"
      ],
      [
        "Ġattr",
        "active"
      ],
      [
        "service",
        "s"
      ],
      [
        "FlowMin",
        "d"
      ],
      [
        "B",
        "log"
      ],
      [
        "D",
        "oc"
      ],
      [
        "D",
        "ashboard"
      ],
      [
        "a",
        "i"
      ],
      [
        "n",
        "Next"
      ],
      [
        "n",
        "Tech"
      ],
      [
        "n",
        "Animations"
      ],
      [
        "r",
        "and"
      ],
      [
        "Ġ",
        "W"
      ],
      [
        "Ġb",
        "rand"
      ],
      [
        "ĠF",
        "AQ"
      ],
      [
        "Re",
        "quirements"
      ],
      [
        "ĠRo",
        "aster"
      ],
      [
        "Ġbo",
        "oking"
      ],
      [
        "\"",
        "}"
      ],
      [
        "'",
        ":"
      ],
      [
        "(",
        "()"
      ],
      [
        "1",
        "73"
      ],
      [
        "4",
        "6"
      ],
      [
        ":",
        "\""
      ],
      [
        "A",
        "I"
      ],
      [
        "A",
        "i"
      ],
      [
        "B",
        "lur"
      ],
      [
        "B",
        "ike"
      ],
      [
        "C",
        "ode"
      ],
      [
        "C",
        "alled"
      ],
      [
        "C",
        "olor"
      ],
      [
        "C",
        "offee"
      ],
      [
        "C",
        "reative"
      ],
      [
        "D",
        "B"
      ],
      [
        "D",
        "D"
      ],
      [
        "D",
        "i"
      ],
      [
        "D",
        "ur"
      ],
      [
        "E",
        "di"
      ],
      [
        "E",
        "very"
      ],
      [
        "E",
        "mail"
      ],
      [
        "G",
        "lass"
      ],
      [
        "G",
        "low"
      ],
      [
        "H",
        "ooks"
      ],
      [
        "H",
        "eal"
      ],
      [
        "I",
        "ns"
      ],
      [
        "I",
        "cons"
      ],
      [
        "J",
        "ou"
      ],
      [
        "L",
        "a"
      ],
      [
        "L",
        "ocal"
      ],
      [
        "M",
        "agnetic"
      ],
      [
        "N",
        "o"
      ],
      [
        "P",
        "I"
      ],
      [
        "P",
        "ortfolio"
      ],
      [
        "R",
        "L"
      ],
      [
        "R",
        "ight"
      ],
      [
        "R",
        "ES"
      ],
      [
        "S",
        "li"
      ],
      [
        "S",
        "DD"
      ],
      [
        "T",
        "il"
      ],
      [
        "T",
        "og"
      ],
      [
        "U",
        "RL"
      ],
      [
        "V",
        "er"
      ],
      [
        "\\",
        "\""
      ],
      [
        "]",
        ")"
      ],
      [
        "a",
        "d"
      ],
      [
        "a",
        "di"
      ],
      [
        "a",
        "ve"
      ],
      [
        "a",
        "yout"
      ],
      [
        "b",
        "il"
      ],
      [
        "c",
        "n"
      ],
      [
        "c",
        "or"
      ],
      [
        "c",
        "hite"
      ],
      [
        "c",
        "reate"
      ],
      [
        "c",
        "ase"
      ],
      [
        "c",
        "ator"
      ],
      [
        "d",
        "ding"
      ],
      [
        "d",
        "min"
      ],
      [
        "d",
        "cn"
      ],
      [
        "e",
        "y"
      ],
      [
        "e",
        "rc"
      ],
      [
        "e",
        "ft"
      ],
      [
        "e",
        "el"
      ],
      [
        "f",
        "r"
      ],
      [
        "f",
        "ac"
      ],
      [
        "f",
        "low"
      ],
      [
        "g",
        "o"
      ],
      [
        "g",
        "gle"
      ],
      [
        "h",
        "en"
      ],
      [
        "h",
        "ooks"
      ],
      [
        "i",
        "la"
      ],
      [
        "i",
        "ssion"
      ],
      [
        "i",
        "ber"
      ],
      [
        "k",
        "il"
      ],
      [
        "l",
        "s"
      ],
      [
        "l",
        "le"
      ],
      [
        "l",
        "th"
      ],
      [
        "l",
        "ut"
      ],
      [
        "l",
        "ling"
      ],
      [
        "n",
        "p"
      ],
      [
        "n",
        "u"
      ],
      [
        "n",
        "Create"
      ],
      [
        "n",
        "React"
      ],
      [
        "n",
        "The"
      ],
      [
        "n",
        "Project"
      ],
      [
        "n",
        "Each"
      ],
      [
        "n",
        "Hover"
      ],
      [
        "n",
        "Rotate"
      ],
      [
        "n",
        "GitHub"
      ],
      [
        "n",
        "Infinite"
      ],
      [
        "o",
        "y"
      ],
      [
        "o",
        "om"
      ],
      [
        "o",
        "un"
      ],
      [
        "o",
        "ld"
      ],
      [
        "o",
        "cial"
      ],
      [
        "p",
        "le"
      ],
      [
        "p",
        "ward"
      ],
      [
        "p",
        "rodu"
      ],
      [
        "s",
        "or"
      ],
      [
        "t",
        "te"
      ],
      [
        "u",
        "tu"
      ],
      [
        "u",
        "sion"
      ],
      [
        "u",
        "pa"
      ],
      [
        "u",
        "ber"
      ],
      [
        "w",
        "arm"
      ],
      [
        "y",
        "te"
      ],
      [
        "y",
        "th"
      ],
      [
        "y",
        "pography"
      ],
      [
        "y",
        "right"
      ],
      [
        "Ġ",
        "me"
      ],
      [
        "Ġ",
        "port"
      ],
      [
        "Ġ",
        "Page"
      ],
      [
        "Ġ",
        "ser"
      ],
      [
        "Ġ",
        "white"
      ],
      [
        "Ġ",
        "Mode"
      ],
      [
        "Ġ",
        "opacity"
      ],
      [
        "Ġ",
        "us"
      ],
      [
        "Ġ",
        "dow"
      ],
      [
        "Ġ",
        "Element"
      ],
      [
        "Ġ",
        "document"
      ],
      [
        "Ġ",
        "Optimiz"
      ],
      [
        "Ġ",
        "Effect"
      ],
      [
        "Ġ",
        "Me"
      ],
      [
        "Ġ",
        "Product"
      ],
      [
        "Ġ",
        "ok"
      ],
      [
        "Ġ",
        "right"
      ],
      [
        "Ġ",
        "Experience"
      ],
      [
        "Ġ",
        "Productivity"
      ],
      [
        "te",
        "gra"
      ],
      [
        "on",
        "go"
      ],
      [
        "ti",
        "nu"
      ],
      [
        "la",
        "ck"
      ],
      [
        "me",
        "out"
      ],
      [
        "Ġf",
        "ol"
      ],
      [
        "Ġf",
        "et"
      ],
      [
        "Ġf",
        "loa"
      ],
      [
        "Ġf",
        "loating"
      ],
      [
        "Ġf",
        "eel"
      ],
      [
        "Ġc",
        "le"
      ],
      [
        "le",
        "vel"
      ],
      [
        "re",
        "base"
      ],
      [
        "ss",
        "age"
      ],
      [
        "ge",
        "s"
      ],
      [
        "\">",
        "<"
      ],
      [
        "tion",
        "al"
      ],
      [
        "nt",
        "rodu"
      ],
      [
        "Ġp",
        "article"
      ],
      [
        "Ġp",
        "romp"
      ],
      [
        "Ġp",
        "rompt"
      ],
      [
        "ar",
        "s"
      ],
      [
        "Ġm",
        "y"
      ],
      [
        "Ġm",
        "ouse"
      ],
      [
        "Ġm",
        "obile"
      ],
      [
        "ri",
        "stic"
      ],
      [
        "to",
        "ggle"
      ],
      [
        "im",
        "ila"
      ],
      [
        "Ġs",
        "tor"
      ],
      [
        "Ġs",
        "low"
      ],
      [
        "Ġs",
        "ubmit"
      ],
      [
        "Ġs",
        "imila"
      ],
      [
        "ter",
        "s"
      ],
      [
        "ter",
        "ns"
      ],
      [
        "Ġ/",
        "/"
      ],
      [
        "Ġb",
        "eauti"
      ],
      [
        "an",
        "y"
      ],
      [
        "an",
        "el"
      ],
      [
        "an",
        "ges"
      ],
      [
        "ta",
        "ble"
      ],
      [
        "der",
        "s"
      ],
      [
        "Ġde",
        "pl"
      ],
      [
        "Ġde",
        "sk"
      ],
      [
        "ea",
        "ders"
      ],
      [
        "Ġre",
        "usable"
      ],
      [
        "en",
        "s"
      ],
      [
        "en",
        "is"
      ],
      [
        "di",
        "t"
      ],
      [
        "di",
        "cator"
      ],
      [
        "ty",
        "le"
      ],
      [
        "rn",
        "ey"
      ],
      [
        "ent",
        "age"
      ],
      [
        "omp",
        "any"
      ],
      [
        "Ġtr",
        "adi"
      ],
      [
        "Ġa",
        "ppe"
      ],
      [
        "and",
        "ing"
      ],
      [
        "ĠC",
        "ode"
      ],
      [
        "ĠC",
        "alled"
      ],
      [
        "ĠC",
        "olor"
      ],
      [
        "ĠC",
        "uber"
      ],
      [
        "Link",
        "ed"
      ],
      [
        "eature",
        "d"
      ],
      [
        "ght",
        "ly"
      ],
      [
        "ap",
        "i"
      ],
      [
        "ap",
        "pl"
      ],
      [
        "ĠF",
        "ull"
      ],
      [
        "ĠF",
        "orm"
      ],
      [
        "ĠF",
        "older"
      ],
      [
        "ĠF",
        "iber"
      ],
      [
        "ĠF",
        "utu"
      ],
      [
        "ĠF",
        "eatured"
      ],
      [
        "Ġla",
        "yout"
      ],
      [
        "ĠL",
        "uxury"
      ],
      [
        "ĠL",
        "ayout"
      ],
      [
        "ĠL",
        "usion"
      ],
      [
        "ĠL",
        "enis"
      ],
      [
        "Ġh",
        "ave"
      ],
      [
        "Ġh",
        "eaders"
      ],
      [
        "Ġw",
        "hi"
      ],
      [
        "Ġw",
        "arm"
      ],
      [
        "Ġw",
        "hen"
      ],
      [
        "ie",
        "ve"
      ],
      [
        "Ġe",
        "mail"
      ],
      [
        "Ġe",
        "dit"
      ],
      [
        "ĠA",
        "i"
      ],
      [
        "ĠA",
        "PI"
      ],
      [
        "hea",
        "lth"
      ],
      [
        "Ġg",
        "row"
      ],
      [
        "ĠS",
        "ha"
      ],
      [
        "ĠS",
        "tar"
      ],
      [
        "ĠS",
        "oft"
      ],
      [
        "ĠS",
        "EO"
      ],
      [
        "ĠS",
        "ubmit"
      ],
      [
        "ĠS",
        "plit"
      ],
      [
        "ĠS",
        "kil"
      ],
      [
        "ĠS",
        "tyle"
      ],
      [
        "Re",
        "veal"
      ],
      [
        "Re",
        "fine"
      ],
      [
        "ĠB",
        "old"
      ],
      [
        "ĠB",
        "lack"
      ],
      [
        "ce",
        "ssi"
      ],
      [
        "ce",
        "lle"
      ],
      [
        "op",
        "yright"
      ],
      [
        "Ġwi",
        "re"
      ],
      [
        "ĠP",
        "ale"
      ],
      [
        "ĠP",
        "ur"
      ],
      [
        "ĠP",
        "erformance"
      ],
      [
        "ĠP",
        "remium"
      ],
      [
        "ĠP",
        "arallax"
      ],
      [
        "ĠP",
        "erc"
      ],
      [
        "ĠP",
        "anel"
      ],
      [
        "Ġback",
        "end"
      ],
      [
        "Ġ[",
        "\""
      ],
      [
        "ĠApp",
        "le"
      ],
      [
        "ĠT",
        "o"
      ],
      [
        "ĠT",
        "op"
      ],
      [
        "ĠT",
        "he"
      ],
      [
        "ĠT",
        "ext"
      ],
      [
        "ĠT",
        "ype"
      ],
      [
        "ĠT",
        "ypography"
      ],
      [
        "usto",
        "m"
      ],
      [
        "Ġcon",
        "tinu"
      ],
      [
        "De",
        "sig"
      ],
      [
        "Card",
        "s"
      ],
      [
        "Ġch",
        "anges"
      ],
      [
        "Ġu",
        "pward"
      ],
      [
        "tea",
        "d"
      ],
      [
        "ĠLink",
        "s"
      ],
      [
        "tic",
        "al"
      ],
      [
        "Ġz",
        "oom"
      ],
      [
        "ĠG",
        "lass"
      ],
      [
        "=\"#",
        "\">"
      ],
      [
        "Ġ100",
        "00"
      ],
      [
        "ale",
        "s"
      ],
      [
        "ĠU",
        "X"
      ],
      [
        "('",
        "/"
      ],
      [
        "document",
        "Element"
      ],
      [
        "ansi",
        "tions"
      ],
      [
        "pa",
        "yload"
      ],
      [
        "Ġcomp",
        "onents"
      ],
      [
        "Ġshadow",
        "s"
      ],
      [
        "ur",
        "sor"
      ],
      [
        "ame",
        "work"
      ],
      [
        "Ġth",
        "is"
      ],
      [
        "ĠRea",
        "dy"
      ],
      [
        "We",
        "b"
      ],
      [
        "Ġpla",
        "ceholder"
      ],
      [
        "Ġsc",
        "ales"
      ],
      [
        "Fast",
        "API"
      ],
      [
        "ous",
        "ly"
      ],
      [
        "hi",
        "p"
      ],
      [
        "ĠDe",
        "tails"
      ],
      [
        "ĠDe",
        "mo"
      ],
      [
        "sty",
        "ling"
      ],
      [
        "ch",
        "Heal"
      ],
      [
        "ch",
        "ieve"
      ],
      [
        "Ġbase",
        "URL"
      ],
      [
        "Ġan",
        "imation"
      ],
      [
        "Ġex",
        "celle"
      ],
      [
        "ĠTr",
        "ansitions"
      ],
      [
        "full",
        "y"
      ],
      [
        "as",
        "k"
      ],
      [
        "Fi",
        "rebase"
      ],
      [
        "Ġthe",
        "me"
      ],
      [
        "ble",
        "t"
      ],
      [
        "Pla",
        "tform"
      ],
      [
        "ĠTe",
        "ch"
      ],
      [
        "ĠAn",
        "imations"
      ],
      [
        "ĠI",
        "cons"
      ],
      [
        "ĠI",
        "mage"
      ],
      [
        "ĠI",
        "ntrodu"
      ],
      [
        "ĠSc",
        "ale"
      ],
      [
        "ĠO",
        "ut"
      ],
      [
        "loa",
        "t"
      ],
      [
        "sk",
        "y"
      ],
      [
        "An",
        "Ai"
      ],
      [
        "ĠM",
        "ouse"
      ],
      [
        "ĠM",
        "orphism"
      ],
      [
        "ĠM",
        "ic"
      ],
      [
        "ĠM",
        "arquee"
      ],
      [
        "Ac",
        "cessi"
      ],
      [
        "Produ",
        "ction"
      ],
      [
        "Li",
        "st"
      ],
      [
        "Li",
        "ve"
      ],
      [
        "Theme",
        "Tog"
      ],
      [
        "ĠIn",
        "tegra"
      ],
      [
        "ĠIn",
        "dicator"
      ],
      [
        "Flow",
        "Page"
      ],
      [
        "In",
        "terns"
      ],
      [
        "nC",
        "ode"
      ],
      [
        "Ġar",
        "chite"
      ],
      [
        "Ġsli",
        "ghtly"
      ],
      [
        "nM",
        "agnetic"
      ],
      [
        "Ġta",
        "blet"
      ],
      [
        "Ġdi",
        "splay"
      ],
      [
        "ĠMo",
        "ckup"
      ],
      [
        "tter",
        "ns"
      ],
      [
        "class",
        "List"
      ],
      [
        "Ġbo",
        "ttom"
      ],
      [
        "Ġpa",
        "yload"
      ],
      [
        "Ġpa",
        "dding"
      ],
      [
        "Ġpa",
        "tterns"
      ],
      [
        "Ġmov",
        "es"
      ],
      [
        "Ġsoft",
        "ly"
      ],
      [
        "ĠLo",
        "ad"
      ],
      [
        "ĠTimeline",
        "s"
      ],
      [
        "ic",
        "ation"
      ],
      [
        "background",
        "Color"
      ],
      [
        "nL",
        "a"
      ],
      [
        "ĠFlow",
        "Page"
      ],
      [
        "ĠInter",
        "actions"
      ],
      [
        "ĠInter",
        "fac"
      ],
      [
        "Type",
        "Script"
      ],
      [
        "``",
        "`"
      ],
      [
        "for",
        "ms"
      ],
      [
        "ĠPro",
        "jects"
      ],
      [
        "ĠPro",
        "fessional"
      ],
      [
        "Ġcard",
        "s"
      ],
      [
        "ĠHeadline",
        "s"
      ],
      [
        "Ġawa",
        "y"
      ],
      [
        "Ġawa",
        "it"
      ],
      [
        "ĠPla",
        "ceholder"
      ],
      [
        "ĠPla",
        "tform"
      ],
      [
        "Ġscroll",
        "s"
      ],
      [
        "Productivity",
        "Platform"
      ],
      [
        "Ġmove",
        "ment"
      ],
      [
        "Ġtrans",
        "forms"
      ],
      [
        "Ġshow",
        "case"
      ],
      [
        "use",
        "Theme"
      ],
      [
        "Ġ5",
        "173"
      ],
      [
        "Ġti",
        "meout"
      ],
      [
        "Ġop",
        "ens"
      ],
      [
        "Ġreveal",
        "s"
      ],
      [
        "ĠSli",
        "der"
      ],
      [
        "ĠW",
        "hite"
      ],
      [
        "\"}",
        "'"
      ],
      [
        "46",
        "8"
      ],
      [
        "Called",
        "Page"
      ],
      [
        "Di",
        "splay"
      ],
      [
        "Dur",
        "ing"
      ],
      [
        "Edi",
        "table"
      ],
      [
        "Ins",
        "tead"
      ],
      [
        "Jou",
        "rney"
      ],
      [
        "RES",
        "T"
      ],
      [
        "Til",
        "t"
      ],
      [
        "Ver",
        "tical"
      ],
      [
        "bil",
        "ity"
      ],
      [
        "fr",
        "amework"
      ],
      [
        "lut",
        "ter"
      ],
      [
        "np",
        "m"
      ],
      [
        "oy",
        "ed"
      ],
      [
        "oun",
        "ters"
      ],
      [
        "upa",
        "base"
      ],
      [
        "yte",
        "lling"
      ],
      [
        "yth",
        "on"
      ],
      [
        "Ġme",
        "ssage"
      ],
      [
        "Ġser",
        "ver"
      ],
      [
        "Ġus",
        "ing"
      ],
      [
        "Ġdow",
        "n"
      ],
      [
        "ĠElement",
        "s"
      ],
      [
        "ĠOptimiz",
        "ation"
      ],
      [
        "ongo",
        "DB"
      ],
      [
        "Ġfol",
        "low"
      ],
      [
        "Ġfet",
        "chHeal"
      ],
      [
        "Ġfloa",
        "ts"
      ],
      [
        "Ġcle",
        "an"
      ],
      [
        "Ġparticle",
        "s"
      ],
      [
        "Ġpromp",
        "ts"
      ],
      [
        "Ġstor",
        "ytelling"
      ],
      [
        "Ġslow",
        "ly"
      ],
      [
        "Ġsubmit",
        "Contact"
      ],
      [
        "Ġsimila",
        "r"
      ],
      [
        "Ġbeauti",
        "fully"
      ],
      [
        "Ġdepl",
        "oyed"
      ],
      [
        "Ġdesk",
        "top"
      ],
      [
        "Ġtradi",
        "tional"
      ],
      [
        "Ġappe",
        "ars"
      ],
      [
        "ĠCuber",
        "to"
      ],
      [
        "Linked",
        "In"
      ],
      [
        "appl",
        "ication"
      ],
      [
        "ĠFutu",
        "ristic"
      ],
      [
        "Ġwhi",
        "le"
      ],
      [
        "Ġgrow",
        "s"
      ],
      [
        "ĠSha",
        "dcn"
      ],
      [
        "ĠStar",
        "s"
      ],
      [
        "ĠSplit",
        "ting"
      ],
      [
        "ĠSkil",
        "ls"
      ],
      [
        "ĠPale",
        "tte"
      ],
      [
        "ĠPur",
        "ple"
      ],
      [
        "ĠPerc",
        "entage"
      ],
      [
        "ĠThe",
        "me"
      ],
      [
        "ĠType",
        "Script"
      ],
      [
        "Ġcontinu",
        "ously"
      ],
      [
        "Desig",
        "n"
      ],
      [
        "Ġzoom",
        "s"
      ],
      [
        "chieve",
        "ments"
      ],
      [
        "Ġexcelle",
        "nt"
      ],
      [
        "ĠIntrodu",
        "ction"
      ],
      [
        "AnAi",
        "ProductivityPlatform"
      ],
      [
        "ĠMic",
        "ro"
      ],
      [
        "Accessi",
        "bility"
      ],
      [
        "ThemeTog",
        "gle"
      ],
      [
        "ĠIntegra",
        "tion"
      ],
      [
        "Interns",
        "hip"
      ],
      [
        "Ġarchite",
        "cture"
      ],
      [
        "ĠInterfac",
        "es"
      ],
      [
        "ĠfetchHeal",
        "th"
      ],
      [
        "AnAiProductivityPlatform",
        "CalledPage"
      ],
      [
        "'",
        "."
      ],
      [
        ".",
        "."
      ],
      [
        "C",
        "ase"
      ],
      [
        "S",
        "tu"
      ],
      [
        "S",
        "EO"
      ],
      [
        "a",
        "rou"
      ],
      [
        "a",
        "ke"
      ],
      [
        "b",
        "lo"
      ],
      [
        "c",
        "ted"
      ],
      [
        "c",
        "afe"
      ],
      [
        "h",
        "ook"
      ],
      [
        "i",
        "f"
      ],
      [
        "m",
        "arquee"
      ],
      [
        "n",
        "y"
      ],
      [
        "o",
        "ckup"
      ],
      [
        "u",
        "ti"
      ],
      [
        "Ġ",
        "nav"
      ],
      [
        "Ġ",
        "low"
      ],
      [
        "Ġ",
        "all"
      ],
      [
        "Ġ",
        "our"
      ],
      [
        "Ġ",
        "log"
      ],
      [
        "te",
        "cted"
      ],
      [
        "Ġc",
        "om"
      ],
      [
        "Ġc",
        "an"
      ],
      [
        "Ġc",
        "ome"
      ],
      [
        "Ġc",
        "ost"
      ],
      [
        "re",
        "nt"
      ],
      [
        "re",
        "veal"
      ],
      [
        "se",
        "l"
      ],
      [
        "ar",
        "tistic"
      ],
      [
        "Ġm",
        "ake"
      ],
      [
        "Ġm",
        "ockup"
      ],
      [
        "Ġs",
        "o"
      ],
      [
        "Ġb",
        "ut"
      ],
      [
        "Ġb",
        "ike"
      ],
      [
        "an",
        "imated"
      ],
      [
        "Ġde",
        "tected"
      ],
      [
        "tr",
        "ue"
      ],
      [
        "Ġre",
        "nt"
      ],
      [
        "Ġre",
        "quire"
      ],
      [
        "sc",
        "roll"
      ],
      [
        "ĠF",
        "or"
      ],
      [
        "ĠS",
        "ticky"
      ],
      [
        "dy",
        "Card"
      ],
      [
        "op",
        "ny"
      ],
      [
        "ĠD",
        "oc"
      ],
      [
        "ĠD",
        "ashboard"
      ],
      [
        "us",
        "ted"
      ],
      [
        "Expl",
        "ic"
      ],
      [
        "li",
        "ft"
      ],
      [
        "Ġu",
        "i"
      ],
      [
        "pa",
        "rent"
      ],
      [
        "Ġan",
        "imated"
      ],
      [
        "ĠTr",
        "usted"
      ],
      [
        "Ġda",
        "shboard"
      ],
      [
        "Ġcal",
        "l"
      ],
      [
        "Ġroas",
        "ter"
      ],
      [
        "min",
        "imal"
      ],
      [
        "ĠBlo",
        "g"
      ],
      [
        "Ġse",
        "e"
      ],
      [
        "nS",
        "EO"
      ],
      [
        "Ġbo",
        "uti"
      ],
      [
        "Project",
        "Gallery"
      ],
      [
        "Ġtrans",
        "parent"
      ],
      [
        "Doc",
        "s"
      ],
      [
        ":\"",
        "#"
      ],
      [
        "..",
        ".\","
      ],
      [
        "Case",
        "Stu"
      ],
      [
        "arou",
        "sel"
      ],
      [
        "blo",
        "om"
      ],
      [
        "Ġnav",
        "bar"
      ],
      [
        "Ġlog",
        "o"
      ],
      [
        "Ġcom",
        "opny"
      ],
      [
        "Ġcome",
        "s"
      ],
      [
        "Ġbike",
        "s"
      ],
      [
        "Ġrequire",
        "ment"
      ],
      [
        "Explic",
        "it"
      ],
      [
        "Ġbouti",
        "que"
      ],
      [
        "CaseStu",
        "dyCard"
      ],
      [
        "\"",
        "]"
      ],
      [
        "\"",
        "],"
      ],
      [
        "%",
        ","
      ],
      [
        "6",
        "5"
      ],
      [
        "8",
        "75"
      ],
      [
        "9",
        "8"
      ],
      [
        "A",
        "s"
      ],
      [
        "A",
        "dmin"
      ],
      [
        "A",
        "chievements"
      ],
      [
        "C",
        "lass"
      ],
      [
        "C",
        "ast"
      ],
      [
        "C",
        "ompany"
      ],
      [
        "C",
        "opyright"
      ],
      [
        "C",
        "ustom"
      ],
      [
        "C",
        "ursor"
      ],
      [
        "C",
        "ounters"
      ],
      [
        "F",
        "ie"
      ],
      [
        "F",
        "loating"
      ],
      [
        "F",
        "ade"
      ],
      [
        "F",
        "loat"
      ],
      [
        "F",
        "lutter"
      ],
      [
        "I",
        "m"
      ],
      [
        "L",
        "ine"
      ],
      [
        "L",
        "eft"
      ],
      [
        "L",
        "anding"
      ],
      [
        "M",
        "o"
      ],
      [
        "M",
        "ission"
      ],
      [
        "M",
        "ask"
      ],
      [
        "M",
        "ongoDB"
      ],
      [
        "P",
        "erformance"
      ],
      [
        "P",
        "remium"
      ],
      [
        "P",
        "arallax"
      ],
      [
        "P",
        "ython"
      ],
      [
        "S",
        "mooth"
      ],
      [
        "S",
        "plit"
      ],
      [
        "S",
        "tagger"
      ],
      [
        "S",
        "ocial"
      ],
      [
        "S",
        "upabase"
      ],
      [
        "T",
        "s"
      ],
      [
        "T",
        "able"
      ],
      [
        "W",
        "arm"
      ],
      [
        "a",
        "ld"
      ],
      [
        "b",
        "d"
      ],
      [
        "b",
        "uilder"
      ],
      [
        "c",
        "alled"
      ],
      [
        "c",
        "ale"
      ],
      [
        "c",
        "bd"
      ],
      [
        "d",
        "f"
      ],
      [
        "d",
        "Mo"
      ],
      [
        "e",
        "mer"
      ],
      [
        "f",
        "df"
      ],
      [
        "g",
        "s"
      ],
      [
        "l",
        "l"
      ],
      [
        "n",
        "Hero"
      ],
      [
        "n",
        "App"
      ],
      [
        "n",
        "About"
      ],
      [
        "n",
        "sion"
      ],
      [
        "n",
        "Responsive"
      ],
      [
        "n",
        "Website"
      ],
      [
        "n",
        "Dark"
      ],
      [
        "n",
        "Your"
      ],
      [
        "n",
        "Experience"
      ],
      [
        "n",
        "API"
      ],
      [
        "n",
        "Blur"
      ],
      [
        "n",
        "Every"
      ],
      [
        "n",
        "Email"
      ],
      [
        "n",
        "Glass"
      ],
      [
        "n",
        "Glow"
      ],
      [
        "n",
        "Hooks"
      ],
      [
        "n",
        "Icons"
      ],
      [
        "n",
        "No"
      ],
      [
        "n",
        "Right"
      ],
      [
        "n",
        "Reveal"
      ],
      [
        "n",
        "Cards"
      ],
      [
        "n",
        "Web"
      ],
      [
        "n",
        "FastAPI"
      ],
      [
        "n",
        "Firebase"
      ],
      [
        "n",
        "Production"
      ],
      [
        "n",
        "Live"
      ],
      [
        "n",
        "TypeScript"
      ],
      [
        "n",
        "Display"
      ],
      [
        "n",
        "During"
      ],
      [
        "n",
        "Instead"
      ],
      [
        "n",
        "Journey"
      ],
      [
        "n",
        "REST"
      ],
      [
        "n",
        "Tilt"
      ],
      [
        "n",
        "Vertical"
      ],
      [
        "n",
        "LinkedIn"
      ],
      [
        "n",
        "Design"
      ],
      [
        "n",
        "Accessibility"
      ],
      [
        "n",
        "Internship"
      ],
      [
        "o",
        "late"
      ],
      [
        "r",
        "un"
      ],
      [
        "Ġ",
        "2"
      ],
      [
        "Ġ",
        "4"
      ],
      [
        "Ġ",
        "ac"
      ],
      [
        "Ġ",
        "600"
      ],
      [
        "Ġ",
        "Explore"
      ],
      [
        "Ġ",
        "700"
      ],
      [
        "Ġ",
        "45"
      ],
      [
        "Ġ",
        "Your"
      ],
      [
        "Ġ",
        "align"
      ],
      [
        "Ġ",
        "720"
      ],
      [
        "Ġ",
        "\\\""
      ],
      [
        "Ġ",
        "run"
      ],
      [
        "te",
        "ction"
      ],
      [
        "te",
        "st"
      ],
      [
        "te",
        "nsion"
      ],
      [
        "Ġf",
        "ooter"
      ],
      [
        "in",
        "imal"
      ],
      [
        "Ġc",
        "enter"
      ],
      [
        "Ġc",
        "lamp"
      ],
      [
        "Ġc",
        "arousel"
      ],
      [
        "de",
        "cor"
      ],
      [
        "por",
        "ting"
      ],
      [
        "bo",
        "ttom"
      ],
      [
        "Ġs",
        "ol"
      ],
      [
        "th",
        "ree"
      ],
      [
        "an",
        "ies"
      ],
      [
        "Ġde",
        "v"
      ],
      [
        "di",
        "on"
      ],
      [
        "di",
        "us"
      ],
      [
        "ld",
        "s"
      ],
      [
        "rip",
        "ts"
      ],
      [
        "al",
        "low"
      ],
      [
        "Ġw",
        "rap"
      ],
      [
        "Ġe",
        "ffe"
      ],
      [
        "ĠS",
        "tagger"
      ],
      [
        "ĠB",
        "eauti"
      ],
      [
        "Pro",
        "per"
      ],
      [
        "Pro",
        "jects"
      ],
      [
        "Pro",
        "fessional"
      ],
      [
        "Hero",
        "Sli"
      ],
      [
        "sta",
        "ll"
      ],
      [
        "Ġin",
        "stall"
      ],
      [
        "dule",
        "s"
      ],
      [
        "module",
        "De"
      ],
      [
        "doc",
        "s"
      ],
      [
        "De",
        "fine"
      ],
      [
        "Ex",
        "tension"
      ],
      [
        "fa",
        "q"
      ],
      [
        "li",
        "de"
      ],
      [
        "Ġcomp",
        "anies"
      ],
      [
        "12",
        "5"
      ],
      [
        "Ġle",
        "tter"
      ],
      [
        "da",
        "shboard"
      ],
      [
        "timiz",
        "ed"
      ],
      [
        "ra",
        "dius"
      ],
      [
        "pla",
        "tform"
      ],
      [
        "mon",
        "o"
      ],
      [
        "is",
        "olate"
      ],
      [
        "ĠSc",
        "ripts"
      ],
      [
        "Ġl",
        "inear"
      ],
      [
        "nS",
        "mooth"
      ],
      [
        "nS",
        "plit"
      ],
      [
        "nS",
        "tagger"
      ],
      [
        "nS",
        "ocial"
      ],
      [
        "nS",
        "upabase"
      ],
      [
        "nS",
        "cale"
      ],
      [
        "nS",
        "lide"
      ],
      [
        "nC",
        "ast"
      ],
      [
        "nC",
        "ompany"
      ],
      [
        "nC",
        "opyright"
      ],
      [
        "nC",
        "ustom"
      ],
      [
        "nC",
        "ursor"
      ],
      [
        "nC",
        "ounters"
      ],
      [
        "Ġn",
        "one"
      ],
      [
        "nM",
        "obile"
      ],
      [
        "nM",
        "ission"
      ],
      [
        "nM",
        "ask"
      ],
      [
        "nM",
        "ongoDB"
      ],
      [
        "nM",
        "inimal"
      ],
      [
        "nP",
        "erformance"
      ],
      [
        "nP",
        "remium"
      ],
      [
        "nP",
        "arallax"
      ],
      [
        "nP",
        "ython"
      ],
      [
        "ba",
        "sh"
      ],
      [
        "Back",
        "ground"
      ],
      [
        "Back",
        "end"
      ],
      [
        "Sc",
        "ale"
      ],
      [
        "nL",
        "ine"
      ],
      [
        "nL",
        "eft"
      ],
      [
        "nL",
        "anding"
      ],
      [
        "ĠInter",
        "active"
      ],
      [
        "ec",
        "fdf"
      ],
      [
        "nF",
        "loating"
      ],
      [
        "nF",
        "ade"
      ],
      [
        "nF",
        "loat"
      ],
      [
        "nF",
        "lutter"
      ],
      [
        "Min",
        "imal"
      ],
      [
        "for",
        "ce"
      ],
      [
        "nA",
        "I"
      ],
      [
        "nA",
        "s"
      ],
      [
        "nA",
        "dmin"
      ],
      [
        "nA",
        "chievements"
      ],
      [
        "For",
        "AnAiProductivityPlatformCalledPage"
      ],
      [
        "For",
        "Class"
      ],
      [
        "FAQ",
        "Page"
      ],
      [
        "Pin",
        "ning"
      ],
      [
        "nPro",
        "per"
      ],
      [
        "nPro",
        "jects"
      ],
      [
        "nPro",
        "fessional"
      ],
      [
        "nBack",
        "ground"
      ],
      [
        "nBack",
        "end"
      ],
      [
        "use",
        "Define"
      ],
      [
        "Ġti",
        "meline"
      ],
      [
        "Ġop",
        "timized"
      ],
      [
        "ĠSli",
        "de"
      ],
      [
        "nPin",
        "ning"
      ],
      [
        "Blog",
        "Page"
      ],
      [
        "Doc",
        "sPage"
      ],
      [
        "Dashboard",
        "Page"
      ],
      [
        "ĠFAQ",
        "Page"
      ],
      [
        "La",
        "ter"
      ],
      [
        "La",
        "zy"
      ],
      [
        "Sli",
        "de"
      ],
      [
        "cor",
        "dion"
      ],
      [
        "produ",
        "ct"
      ],
      [
        "produ",
        "ctivity"
      ],
      [
        "nLa",
        "ter"
      ],
      [
        "nLa",
        "zy"
      ],
      [
        "ĠFor",
        "AnAiProductivityPlatformCalledPage"
      ],
      [
        "ĠDoc",
        "sPage"
      ],
      [
        "ĠDashboard",
        "Page"
      ],
      [
        "ĠBlog",
        "Page"
      ],
      [
        "Fie",
        "lds"
      ],
      [
        "Im",
        "porting"
      ],
      [
        "Ts",
        "Extension"
      ],
      [
        "dMo",
        "dules"
      ],
      [
        "emer",
        "ald"
      ],
      [
        "gs",
        "ap"
      ],
      [
        "Ġac",
        "cordion"
      ],
      [
        "decor",
        "ation"
      ],
      [
        "Ġsol",
        "id"
      ],
      [
        "allow",
        "Importing"
      ],
      [
        "Ġeffe",
        "cts"
      ],
      [
        "ĠBeauti",
        "ful"
      ],
      [
        "HeroSli",
        "der"
      ],
      [
        "moduleDe",
        "tection"
      ],
      [
        "isolate",
        "dModules"
      ],
      [
        "ForClass",
        "Fields"
      ],
      [
        "useDefine",
        "ForClassFields"
      ],
      [
        "TsExtension",
        "s"
      ],
      [
        "allowImporting",
        "TsExtensions"
      ],
      [
        "\"",
        "."
      ],
      [
        "7",
        "75"
      ],
      [
        "C",
        "arousel"
      ],
      [
        "F",
        "ramer"
      ],
      [
        "L",
        "ight"
      ],
      [
        "W",
        "id"
      ],
      [
        "b",
        "ike"
      ],
      [
        "c",
        "al"
      ],
      [
        "f",
        "alse"
      ],
      [
        "n",
        "Tailwind"
      ],
      [
        "n",
        "Requirements"
      ],
      [
        "p",
        "ro"
      ],
      [
        "s",
        "oft"
      ],
      [
        "y",
        "ou"
      ],
      [
        "Ġ",
        "if"
      ],
      [
        "on",
        "o"
      ],
      [
        "in",
        "nova"
      ],
      [
        "ro",
        "aster"
      ],
      [
        "Ġm",
        "ono"
      ],
      [
        "bo",
        "oking"
      ],
      [
        "Ġla",
        "you"
      ],
      [
        "Ġe",
        "mp"
      ],
      [
        "ĠS",
        "tic"
      ],
      [
        "ĠB",
        "ike"
      ],
      [
        "ĠRe",
        "quirements"
      ],
      [
        "ĠD",
        "a"
      ],
      [
        "mo",
        "Wid"
      ],
      [
        "De",
        "moWid"
      ],
      [
        "ha",
        "siz"
      ],
      [
        "Pricing",
        "Table"
      ],
      [
        "lo",
        "cal"
      ],
      [
        "nF",
        "ramer"
      ],
      [
        "ĠW",
        "arm"
      ],
      [
        "\\\"",
        "."
      ],
      [
        "\\\"",
        ".\\"
      ],
      [
        "ĠDoc",
        "s"
      ],
      [
        "Table",
        "t"
      ],
      [
        "pro",
        "ject"
      ],
      [
        "soft",
        "ware"
      ],
      [
        "innova",
        "tive"
      ],
      [
        "Ġlayou",
        "ts"
      ],
      [
        "Ġemp",
        "hasiz"
      ],
      [
        "DemoWid",
        "get"
      ],
      [
        "Ġemphasiz",
        "ed"
      ]
    ]
  }
}